<unk>	0
<s>	0
</s>	0
▁t	-0
▁i	-1
▁a	-2
▁s	-3
▁<	-4
▁m	-5
▁w	-6
▁th	-7
▁@	-8
in	-9
ou	-10
▁b	-11
re	-12
ll	-13
▁😂	-14
▁h	-15
on	-16
er	-17
at	-18
▁f	-19
▁l	-20
▁y	-21
▁c	-22
ing	-23
▁g	-24
▁d	-25
▁to	-26
an	-27
▁the	-28
▁you	-29
all	-30
▁n	-31
le	-32
ap	-33
or	-34
▁p	-35
en	-36
st	-37
it	-38
ay	-39
aps	-40
caps	-41
allcaps	-42
ve	-43
▁my	-44
ow	-45
▁be	-46
om	-47
▁an	-48
▁me	-49
pe	-50
is	-51
▁o	-52
▁r	-53
ar	-54
ke	-55
ot	-56
▁wh	-57
et	-58
as	-59
@:	-60
ad	-61
▁e	-62
es	-63
▁lo	-64
repe	-65
repeat	-66
ac	-67
▁😭	-68
ed	-69
▁and	-70
▁it	-71
▁on	-72
▁u	-73
▁in	-74
el	-75
um	-76
ut	-77
▁j	-78
mi	-79
▁😍	-80
▁so	-81
gh	-82
ch	-83
▁go	-84
▁ha	-85
▁li	-86
▁is	-87
mile	-88
ber	-89
“@:	-90
▁“@:	-91
▁sh	-92
smile	-93
▁for	-94
ver	-95
▁of	-96
al	-97
▁that	-98
▁st	-99
umber	-100
▁#	-101
ur	-102
▁we	-103
number	-104
▁rt	-105
▁re	-106
ir	-107
ic	-108
▁😩	-109
▁k	-110
▁@:	-111
ght	-112
am	-113
out	-114
ust	-115
▁"	-116
▁️	-117
▁he	-118
id	-119
▁this	-120
ong	-121
ome	-122
ld	-123
▁ne	-124
ith	-125
▁just	-126
od	-127
▁can	-128
▁❤	-129
ly	-130
▁love	-131
ight	-132
▁with	-133
se	-134
▁like	-135
one	-136
day	-137
th	-138
▁get	-139
ill	-140
ace	-141
▁have	-142
▁do	-143
im	-144
▁😒	-145
▁but	-146
ri	-147
url	-148
▁se	-149
▁at	-150
ck	-151
▁ch	-152
▁not	-153
oo	-154
▁😊	-155
▁don	-156
▁was	-157
▁😘	-158
un	-159
ake	-160
▁as	-161
▁up	-162
ally	-163
face	-164
elong	-165
▁when	-166
▁your	-167
▁wan	-168
▁all	-169
end	-170
op	-171
▁day	-172
ould	-173
▁al	-174
▁ever	-175
art	-176
▁kn	-177
▁fo	-178
ah	-179
>”	-180
ry	-181
app	-182
▁than	-183
▁got	-184
na	-185
▁are	-186
king	-187
ter	-188
▁"@:	-189
▁no	-190
uck	-191
ack	-192
▁.	-193
▁wor	-194
▁out	-195
▁know	-196
ep	-197
▁happ	-198
▁mo	-199
▁😁	-200
▁some	-201
▁good	-202
ion	-203
▁te	-204
ig	-205
ab	-206
▁what	-207
▁if	-208
ie	-209
▁fe	-210
▁br	-211
▁”	-212
▁ab	-213
▁😏	-214
we	-215
ate	-216
ast	-217
ma	-218
▁want	-219
▁&	-220
ks	-221
ent	-222
▁see	-223
▁fr	-224
▁💕	-225
▁mu	-226
▁now	-227
▁every	-228
au	-229
ss	-230
▁too	-231
▁one	-232
iss	-233
llow	-234
fe	-235
▁lol	-236
▁happy	-237
▁she	-238
ime	-239
▁ho	-240
▁ye	-241
ct	-242
▁😳	-243
▁😔	-244
sad	-245
irl	-246
sadface	-247
▁follow	-248
▁pr	-249
▁about	-250
▁how	-251
ven	-252
▁loo	-253
▁girl	-254
lo	-255
ers	-256
ame	-257
▁v	-258
▁they	-259
▁much	-260
our	-261
▁need	-262
ce	-263
and	-264
ain	-265
way	-266
▁le	-267
▁really	-268
▁pl	-269
▁back	-270
▁su	-271
▁time	-272
▁de	-273
riend	-274
▁why	-275
nt	-276
ase	-277
▁fuck	-278
▁pe	-279
he	-280
il	-281
▁feel	-282
▁miss	-283
▁make	-284
▁shit	-285
▁who	-286
▁her	-287
ge	-288
row	-289
xt	-290
▁bo	-291
▁today	-292
▁thin	-293
ool	-294
ish	-295
▁did	-296
▁wa	-297
▁👌	-298
her	-299
▁x	-300
nd	-301
▁any	-302
▁ple	-303
atch	-304
ard	-305
ne	-306
▁bir	-307
▁will	-308
▁going	-309
weet	-310
▁from	-311
▁gu	-312
▁ex	-313
ople	-314
▁fin	-315
▁sa	-316
▁people	-317
ting	-318
▁!	-319
▁birth	-320
▁😅	-321
▁please	-322
▁man	-323
▁or	-324
▁would	-325
▁birthday	-326
ous	-327
▁night	-328
▁,	-329
ick	-330
igg	-331
mor	-332
▁wee	-333
▁hah	-334
▁best	-335
▁im	-336
▁🙌	-337
▁even	-338
▁bit	-339
ul	-340
▁😌	-341
▁fa	-342
▁bab	-343
ause	-344
ess	-345
sh	-346
ice	-347
ways	-348
if	-349
▁say	-350
leep	-351
▁still	-352
▁wait	-353
▁think	-354
▁off	-355
▁com	-356
ving	-357
▁there	-358
▁nigg	-359
▁right	-360
▁tr	-361
▁more	-362
ady	-363
ning	-364
ys	-365
▁always	-366
▁😎	-367
ore	-368
>"	-369
▁am	-370
are	-371
▁had	-372
▁been	-373
▁tal	-374
▁never	-375
own	-376
▁co	-377
▁tw	-378
▁gon	-379
▁thank	-380
▁ass	-381
▁tomor	-382
qu	-383
ass	-384
▁😑	-385
▁sp	-386
▁tomorrow	-387
▁week	-388
ough	-389
▁friend	-390
▁work	-391
▁watch	-392
hing	-393
▁wanna	-394
ak	-395
ive	-396
▁come	-397
▁aw	-398
▁mad	-399
ody	-400
ide	-401
▁😫	-402
ud	-403
ine	-404
▁only	-405
▁bitch	-406
▁ag	-407
ra	-408
▁hope	-409
▁bet	-410
▁pre	-411
▁sleep	-412
ked	-413
▁new	-414
▁👏	-415
▁fun	-416
▁sch	-417
▁life	-418
▁gonna	-419
ip	-420
ies	-421
ral	-422
ty	-423
▁af	-424
▁💀	-425
▁them	-426
ob	-427
▁mom	-428
ation	-429
▁thanks	-430
▁cl	-431
▁lit	-432
▁last	-433
ind	-434
us	-435
▁gre	-436
▁year	-437
utral	-438
▁gr	-439
neutral	-440
neutralface	-441
ound	-442
ag	-443
▁thing	-444
▁home	-445
▁let	-446
▁om	-447
▁oh	-448
▁us	-449
▁try	-450
▁school	-451
▁cut	-452
▁here	-453
▁😈	-454
▁😡	-455
▁ph	-456
▁over	-457
▁ke	-458
▁ton	-459
▁hate	-460
▁😋	-461
▁could	-462
▁then	-463
ite	-464
▁😉	-465
▁💯	-466
▁😐	-467
▁con	-468
▁him	-469
ure	-470
▁som	-471
heart	-472
▁po	-473
▁take	-474
▁ro	-475
▁someone	-476
▁look	-477
▁play	-478
▁tonight	-479
pp	-480
▁by	-481
▁tho	-482
elf	-483
▁has	-484
▁😢	-485
ere	-486
thing	-487
body	-488
▁tweet	-489
▁real	-490
▁bl	-491
ist	-492
▁😕	-493
▁somet	-494
▁way	-495
▁well	-496
▁wish	-497
▁sc	-498
▁😄	-499
▁?	-500
ang	-501
▁dr	-502
ts	-503
▁start	-504
▁pic	-505
▁better	-506
▁baby	-507
▁should	-508
▁💖	-509
▁😜	-510
▁his	-511
▁omg	-512
▁😤	-513
ta	-514
▁bad	-515
▁lma	-516
▁these	-517
▁getting	-518
▁bec	-519
me	-520
▁call	-521
▁☺	-522
▁ar	-523
tle	-524
▁ain	-525
▁nigga	-526
▁mor	-527
▁ok	-528
ny	-529
▁act	-530
▁en	-531
ond	-532
▁💜	-533
ire	-534
other	-535
▁again	-536
▁great	-537
ol	-538
▁qu	-539
▁🎉	-540
os	-541
aking	-542
▁😱	-543
▁lmao	-544
irst	-545
▁id	-546
▁🙈	-547
▁ya	-548
ach	-549
▁tell	-550
▁-	-551
▁said	-552
▁cute	-553
▁being	-554
▁sn	-555
▁bu	-556
▁text	-557
▁morning	-558
▁next	-559
▁per	-560
ought	-561
▁down	-562
▁because	-563
ious	-564
ff	-565
▁does	-566
▁che	-567
▁😪	-568
up	-569
▁stop	-570
ile	-571
ave	-572
▁hi	-573
▁first	-574
▁mean	-575
▁sm	-576
▁boy	-577
▁hahah	-578
▁didn	-579
▁dam	-580
▁😞	-581
▁fre	-582
ready	-583
▁haha	-584
ue	-585
▁🙏	-586
▁yes	-587
▁already	-588
▁guys	-589
act	-590
▁its	-591
▁💗	-592
▁after	-593
▁ba	-594
▁keep	-595
▁pret	-596
▁bre	-597
▁dre	-598
▁talk	-599
▁girls	-600
▁days	-601
▁fav	-602
▁friends	-603
lol	-604
▁our	-605
friend	-606
▁phone	-607
▁mon	-608
▁un	-609
oke	-610
▁little	-611
▁exc	-612
▁long	-613
cc	-614
▁😴	-615
▁damn	-616
iz	-617
oy	-618
▁everyone	-619
▁😻	-620
▁💔	-621
▁something	-622
▁cr	-623
▁💘	-624
ia	-625
▁car	-626
▁were	-627
▁made	-628
self	-629
▁💁	-630
▁cause	-631
▁fucking	-632
get	-633
▁done	-634
▁show	-635
▁where	-636
▁pretty	-637
aut	-638
ited	-639
be	-640
▁nice	-641
ely	-642
lolface	-643
▁god	-644
uh	-645
ant	-646
▁hour	-647
▁ad	-648
▁same	-649
▁give	-650
▁👀	-651
▁beaut	-652
ort	-653
▁twit	-654
aw	-655
▁em	-656
▁big	-657
▁hair	-658
ually	-659
▁💞	-660
▁head	-661
▁game	-662
aa	-663
▁yeah	-664
oth	-665
▁int	-666
▁part	-667
umm	-668
ug	-669
▁put	-670
▁ser	-671
▁hell	-672
▁feeling	-673
ans	-674
▁bae	-675
▁stay	-676
▁twitter	-677
▁👍	-678
▁hard	-679
▁though	-680
▁everything	-681
▁prob	-682
▁😝	-683
▁eat	-684
fore	-685
▁gotta	-686
▁weekend	-687
▁thought	-688
ull	-689
▁bed	-690
erson	-691
▁fl	-692
▁having	-693
pl	-694
est	-695
iful	-696
▁funny	-697
▁class	-698
less	-699
▁😃	-700
▁tur	-701
▁before	-702
ft	-703
ture	-704
zy	-705
ouse	-706
▁mar	-707
▁may	-708
▁beautiful	-709
▁person	-710
▁won	-711
▁soon	-712
▁ear	-713
▁dad	-714
▁min	-715
zing	-716
▁lau	-717
▁watching	-718
▁cra	-719
▁actually	-720
ci	-721
les	-722
▁picture	-723
▁sl	-724
▁cry	-725
age	-726
▁doing	-727
lie	-728
▁oth	-729
▁ver	-730
▁yo	-731
▁wr	-732
▁swe	-733
▁boo	-734
imes	-735
▁house	-736
▁makes	-737
ason	-738
ye	-739
fect	-740
▁✌	-741
▁face	-742
▁sor	-743
▁ama	-744
▁okay	-745
▁old	-746
▁world	-747
▁💛	-748
▁excited	-749
mber	-750
per	-751
▁find	-752
fa	-753
▁hot	-754
▁heart	-755
▁dont	-756
▁talking	-757
▁summ	-758
▁gone	-759
▁✋	-760
▁nothing	-761
▁niggas	-762
ath	-763
iday	-764
▁😆	-765
ince	-766
▁ready	-767
▁lot	-768
▁sorry	-769
▁💙	-770
rist	-771
▁laugh	-772
▁amazing	-773
▁🔥	-774
▁sun	-775
▁other	-776
▁myself	-777
▁serious	-778
▁snap	-779
▁looking	-780
▁🔫	-781
▁😣	-782
▁summer	-783
ble	-784
▁gl	-785
▁😓	-786
▁thr	-787
ater	-788
▁fore	-789
▁sad	-790
ful	-791
ats	-792
▁ur	-793
ount	-794
▁things	-795
▁song	-796
▁wal	-797
▁happen	-798
ash	-799
▁😛	-800
▁perfect	-801
▁tri	-802
▁jo	-803
▁sure	-804
▁hur	-805
ance	-806
▁😖	-807
▁their	-808
▁bout	-809
▁coming	-810
?!	-811
red	-812
ple	-813
▁😹	-814
▁acc	-815
▁lm	-816
ub	-817
▁trying	-818
oney	-819
▁favor	-820
▁two	-821
▁mov	-822
▁into	-823
ity	-824
▁ah	-825
▁such	-826
▁sing	-827
▁kid	-828
▁very	-829
▁🙊	-830
▁kill	-831
ude	-832
▁hel	-833
▁many	-834
▁app	-835
▁end	-836
▁hey	-837
ped	-838
▁since	-839
▁💋	-840
ord	-841
▁belie	-842
▁bc	-843
▁cool	-844
▁💦	-845
▁liter	-846
▁most	-847
li	-848
▁reme	-849
▁break	-850
▁sweet	-851
tf	-852
▁spe	-853
▁christ	-854
▁win	-855
▁dream	-856
ms	-857
ball	-858
▁😠	-859
mas	-860
▁literally	-861
▁care	-862
▁lmfa	-863
▁und	-864
▁hit	-865
mily	-866
▁haven	-867
ment	-868
ee	-869
▁dri	-870
ster	-871
▁swear	-872
▁bitches	-873
▁ima	-874
▁'	-875
▁finally	-876
cked	-877
▁turn	-878
▁believe	-879
▁unt	-880
▁list	-881
▁live	-882
▁guess	-883
▁dis	-884
▁leave	-885
▁sk	-886
▁bro	-887
ale	-888
▁told	-889
ro	-890
▁crazy	-891
▁anything	-892
▁z	-893
▁hours	-894
als	-895
▁luck	-896
▁mess	-897
you	-898
ook	-899
ise	-900
▁around	-901
ich	-902
oud	-903
▁high	-904
▁until	-905
▁whole	-906
▁sist	-907
▁month	-908
▁👊	-909
▁under	-910
ian	-911
▁remember	-912
ying	-913
▁hahaha	-914
▁ask	-915
▁went	-916
ress	-917
▁forever	-918
▁help	-919
ired	-920
▁looks	-921
mo	-922
▁el	-923
ather	-924
▁bruh	-925
▁doesn	-926
▁wear	-927
▁hand	-928
▁😥	-929
▁food	-930
▁kind	-931
▁name	-932
▁away	-933
te	-934
▁while	-935
ink	-936
▁chill	-937
▁str	-938
▁babe	-939
▁making	-940
▁seen	-941
▁✊	-942
▁those	-943
▁guy	-944
lle	-945
▁vide	-946
▁family	-947
▁lmfao	-948
ating	-949
▁fall	-950
ated	-951
int	-952
uff	-953
▁another	-954
▁😚	-955
▁run	-956
▁favorite	-957
gg	-958
▁money	-959
▁cam	-960
▁😀	-961
▁friday	-962
▁ily	-963
▁christmas	-964
▁left	-965
▁room	-966
ars	-967
▁mus	-968
▁ty	-969
▁bring	-970
ree	-971
▁snapch	-972
▁without	-973
ary	-974
▁inst	-975
▁rel	-976
▁cant	-977
able	-978
.”	-979
ping	-980
ably	-981
▁wow	-982
▁ma	-983
▁seriously	-984
more	-985
▁rn	-986
▁saw	-987
▁yet	-988
▁wond	-989
ward	-990
▁na	-991
▁idk	-992
▁sec	-993
dy	-994
▁clo	-995
▁(	-996
omf	-997
▁pro	-998
▁meet	-999
▁def	-1000
ild	-1001
ket	-1002
>>	-1003
▁hun	-1004
▁ann	-1005
▁da	-1006
▁sex	-1007
ote	-1008
▁black	-1009
▁tired	-1010
aha	-1011
▁wonder	-1012
ship	-1013
▁anyone	-1014
night	-1015
▁att	-1016
▁wtf	-1017
▁boyfriend	-1018
▁🎶	-1019
▁wrong	-1020
▁sit	-1021
▁true	-1022
gether	-1023
▁prom	-1024
▁lil	-1025
▁😷	-1026
ory	-1027
▁might	-1028
ions	-1029
joy	-1030
▁probably	-1031
▁yall	-1032
▁glad	-1033
▁through	-1034
▁supp	-1035
▁sw	-1036
▁together	-1037
▁listen	-1038
▁years	-1039
ner	-1040
▁pu	-1041
▁somebody	-1042
▁grad	-1043
bs	-1044
▁early	-1045
▁send	-1046
▁des	-1047
▁op	-1048
▁sat	-1049
▁sound	-1050
▁party	-1051
▁ret	-1052
▁la	-1053
▁*	-1054
▁mind	-1055
▁team	-1056
▁till	-1057
▁music	-1058
▁enjoy	-1059
my	-1060
▁mine	-1061
▁💪	-1062
▁fu	-1063
ange	-1064
▁read	-1065
▁je	-1066
▁free	-1067
io	-1068
▁sister	-1069
unch	-1070
▁oomf	-1071
▁cre	-1072
▁anymore	-1073
ph	-1074
▁bus	-1075
▁everybody	-1076
▁seeing	-1077
ever	-1078
▁dead	-1079
▁playing	-1080
▁mat	-1081
▁movie	-1082
▁hang	-1083
▁hear	-1084
>.	-1085
side	-1086
▁wake	-1087
▁ug	-1088
▁sick	-1089
▁suck	-1090
so	-1091
orm	-1092
▁dude	-1093
▁snapchat	-1094
▁thinking	-1095
▁nobody	-1096
▁boys	-1097
▁💚	-1098
▁waiting	-1099
▁white	-1100
▁bless	-1101
lf	-1102
▁wel	-1103
▁self	-1104
▁smile	-1105
▁late	-1106
▁sho	-1107
most	-1108
▁brother	-1109
▁di	-1110
sp	-1111
▁maybe	-1112
▁💃	-1113
▁blo	-1114
▁both	-1115
▁minut	-1116
▁job	-1117
▁tweets	-1118
▁dm	-1119
unk	-1120
▁times	-1121
▁use	-1122
▁xx	-1123
."	-1124
▁almost	-1125
▁gets	-1126
▁word	-1127
▁tf	-1128
by	-1129
ird	-1130
esome	-1131
ted	-1132
▁video	-1133
▁else	-1134
umb	-1135
ins	-1136
▁own	-1137
▁came	-1138
ling	-1139
ama	-1140
onest	-1141
▁must	-1142
▁nah	-1143
br	-1144
▁super	-1145
vers	-1146
ier	-1147
come	-1148
▁forg	-1149
▁awesome	-1150
▁cle	-1151
▁😰	-1152
ames	-1153
▁honest	-1154
anc	-1155
▁💓	-1156
▁leg	-1157
▁wanted	-1158
▁buy	-1159
yes	-1160
▁lu	-1161
▁saying	-1162
▁♥	-1163
▁post	-1164
ix	-1165
arent	-1166
▁half	-1167
▁taking	-1168
oc	-1169
▁ugly	-1170
▁isn	-1171
ork	-1172
▁stuff	-1173
▁working	-1174
▁par	-1175
ared	-1176
ank	-1177
▁ap	-1178
lly	-1179
▁tre	-1180
▁crying	-1181
▁wasn	-1182
▁char	-1183
ps	-1184
man	-1185
▁move	-1186
ger	-1187
▁👋	-1188
ew	-1189
▁stup	-1190
▁ugh	-1191
▁dress	-1192
▁season	-1193
▁👅	-1194
▁cu	-1195
▁fight	-1196
wh	-1197
here	-1198
▁enough	-1199
▁ig	-1200
▁☀	-1201
▁cou	-1202
▁pictures	-1203
rent	-1204
▁called	-1205
▁far	-1206
pr	-1207
▁underst	-1208
▁took	-1209
cial	-1210
ood	-1211
▁wants	-1212
ton	-1213
▁pass	-1214
ors	-1215
▁proud	-1216
▁forgot	-1217
▁reason	-1218
▁stupid	-1219
pect	-1220
▁😇	-1221
▁welcome	-1222
co	-1223
▁sometimes	-1224
▁lost	-1225
▁forget	-1226
ush	-1227
▁✨	-1228
urday	-1229
ert	-1230
▁sen	-1231
ings	-1232
▁once	-1233
ik	-1234
ationship	-1235
dle	-1236
▁fact	-1237
▁grand	-1238
▁weeks	-1239
▁sur	-1240
iest	-1241
▁scre	-1242
▁stud	-1243
▁cour	-1244
oice	-1245
▁dog	-1246
▁open	-1247
▁cong	-1248
▁realiz	-1249
ots	-1250
▁yester	-1251
▁weird	-1252
▁yesterday	-1253
▁saturday	-1254
▁moment	-1255
▁relationship	-1256
ym	-1257
▁understand	-1258
ana	-1259
▁colle	-1260
▁stra	-1261
land	-1262
▁pls	-1263
▁asleep	-1264
▁used	-1265
▁cur	-1266
▁pay	-1267
▁date	-1268
▁congr	-1269
orn	-1270
▁second	-1271
▁dec	-1272
▁light	-1273
▁bas	-1274
az	-1275
▁defin	-1276
▁star	-1277
▁count	-1278
▁annoy	-1279
ines	-1280
itch	-1281
▁full	-1282
▁finish	-1283
ried	-1284
▁later	-1285
▁cont	-1286
▁needs	-1287
▁cold	-1288
▁tryna	-1289
▁hoes	-1290
esday	-1291
▁spend	-1292
ves	-1293
▁fine	-1294
▁rain	-1295
▁alone	-1296
▁least	-1297
▁woke	-1298
▁plan	-1299
▁kiss	-1300
▁found	-1301
▁fast	-1302
▁dif	-1303
▁foot	-1304
▁rest	-1305
aught	-1306
▁sunday	-1307
▁worst	-1308
▁proble	-1309
▁comes	-1310
▁eyes	-1311
▁rep	-1312
▁missed	-1313
▁aww	-1314
▁add	-1315
▁bur	-1316
▁🎈	-1317
▁retweet	-1318
▁single	-1319
ations	-1320
▁check	-1321
▁shop	-1322
▁honestly	-1323
▁catch	-1324
▁definit	-1325
▁dar	-1326
▁hurt	-1327
ates	-1328
▁🙅	-1329
▁change	-1330
▁started	-1331
iv	-1332
▁side	-1333
ont	-1334
bo	-1335
orge	-1336
no	-1337
▁piss	-1338
▁couldn	-1339
▁cal	-1340
▁goes	-1341
▁place	-1342
att	-1343
▁smh	-1344
▁har	-1345
▁knew	-1346
▁few	-1347
▁chick	-1348
▁everyday	-1349
▁tb	-1350
▁throw	-1351
▁thats	-1352
▁kinda	-1353
▁pain	-1354
▁story	-1355
▁monday	-1356
ren	-1357
▁feels	-1358
▁ide	-1359
time	-1360
ii	-1361
▁walk	-1362
ign	-1363
▁die	-1364
▁also	-1365
een	-1366
▁fucked	-1367
▁ste	-1368
ness	-1369
▁kids	-1370
▁din	-1371
fo	-1372
▁red	-1373
ither	-1374
▁mid	-1375
▁wit	-1376
where	-1377
▁😨	-1378
key	-1379
▁ju	-1380
▁av	-1381
▁lovely	-1382
▁pop	-1383
▁beat	-1384
▁goodnight	-1385
▁ed	-1386
▁👑	-1387
▁cuz	-1388
▁ball	-1389
izz	-1390
▁laughing	-1391
▁ppl	-1392
lt	-1393
▁fat	-1394
▁drive	-1395
▁abs	-1396
der	-1397
▁cous	-1398
▁yay	-1399
▁gi	-1400
▁drunk	-1401
▁body	-1402
▁ice	-1403
▁wed	-1404
▁college	-1405
▁dick	-1406
▁each	-1407
20	-1408
irt	-1409
not	-1410
▁bored	-1411
outh	-1412
▁pa	-1413
ina	-1414
▁definitely	-1415
▁number	-1416
▁mood	-1417
▁drop	-1418
>/	-1419
alent	-1420
▁ago	-1421
pt	-1422
ram	-1423
ade	-1424
▁🎊	-1425
gry	-1426
ugg	-1427
▁parent	-1428
▁soo	-1429
sm	-1430
ence	-1431
▁wom	-1432
▁child	-1433
▁says	-1434
▁months	-1435
▁loves	-1436
ones	-1437
ction	-1438
▁fan	-1439
▁dumb	-1440
▁close	-1441
▁minutes	-1442
▁:	-1443
ng	-1444
hh	-1445
▁bar	-1446
▁grow	-1447
▁fam	-1448
ils	-1449
▁wouldn	-1450
ention	-1451
ode	-1452
▁👯	-1453
olut	-1454
urs	-1455
oooo	-1456
▁lay	-1457
ike	-1458
igh	-1459
▁bestfriend	-1460
▁top	-1461
▁diffe	-1462
▁mc	-1463
▁set	-1464
work	-1465
▁low	-1466
▁past	-1467
▁col	-1468
its	-1469
▁broke	-1470
ha	-1471
▁conc	-1472
ret	-1473
ons	-1474
▁inter	-1475
..	-1476
▁👭	-1477
▁eating	-1478
▁point	-1479
▁straight	-1480
▁fac	-1481
▁girlfriend	-1482
▁asked	-1483
▁ill	-1484
▁👫	-1485
ved	-1486
▁scared	-1487
full	-1488
▁mf	-1489
▁missing	-1490
mm	-1491
▁eye	-1492
▁imp	-1493
▁ans	-1494
▁gorge	-1495
▁feelings	-1496
ney	-1497
▁weather	-1498
▁hold	-1499
▁parents	-1500
▁pick	-1501
▁ep	-1502
▁voice	-1503
back	-1504
▁💍	-1505
▁tic	-1506
▁gym	-1507
▁squ	-1508
▁sleeping	-1509
▁course	-1510
▁either	-1511
ift	-1512
▁tu	-1513
▁ind	-1514
▁gorgeous	-1515
ding	-1516
▁res	-1517
▁cud	-1518
▁phot	-1519
▁heard	-1520
▁hor	-1521
▁cook	-1522
uu	-1523
▁tbh	-1524
ens	-1525
▁type	-1526
▁hoe	-1527
▁😟	-1528
iness	-1529
the	-1530
▁absolut	-1531
unt	-1532
▁eas	-1533
fully	-1534
▁war	-1535
▁exam	-1536
ump	-1537
▁mother	-1538
▁beach	-1539
▁$	-1540
▁water	-1541
▁test	-1542
▁gradu	-1543
▁drink	-1544
ris	-1545
vin	-1546
▁tv	-1547
▁sounds	-1548
▁gave	-1549
ib	-1550
▁forward	-1551
▁dying	-1552
▁boot	-1553
▁roll	-1554
▁annoying	-1555
▁means	-1556
▁fans	-1557
▁pray	-1558
▁ru	-1559
ann	-1560
▁stress	-1561
▁outside	-1562
▁dance	-1563
▁knows	-1564
▁👐	-1565
ssy	-1566
▁imma	-1567
▁pizz	-1568
▁/	-1569
▁met	-1570
ten	-1571
▁couple	-1572
▁er	-1573
▁exact	-1574
ouch	-1575
▁stand	-1576
▁yourself	-1577
ible	-1578
▁rem	-1579
▁pull	-1580
mon	-1581
▁justin	-1582
▁conf	-1583
▁mer	-1584
▁net	-1585
▁eng	-1586
▁sal	-1587
▁hahahah	-1588
▁football	-1589
▁fema	-1590
▁deser	-1591
▁lucky	-1592
▁following	-1593
▁joke	-1594
alous	-1595
▁matter	-1596
▁congrats	-1597
▁👎	-1598
▁cup	-1599
oup	-1600
▁shut	-1601
▁aint	-1602
▁rec	-1603
▁spr	-1604
▁pizza	-1605
>%	-1606
▁sub	-1607
▁starting	-1608
▁lear	-1609
▁mr	-1610
▁🍻	-1611
▁bye	-1612
▁ir	-1613
▁>>	-1614
?"	-1615
▁chang	-1616
▁fell	-1617
▁reg	-1618
▁tl	-1619
▁tot	-1620
▁ce	-1621
▁😬	-1622
▁sent	-1623
▁💨	-1624
▁less	-1625
▁ion	-1626
▁listening	-1627
▁quick	-1628
oring	-1629
▁jealous	-1630
iel	-1631
▁vis	-1632
▁dinner	-1633
▁lea	-1634
▁idea	-1635
▁trip	-1636
follow	-1637
▁account	-1638
vent	-1639
▁quest	-1640
ered	-1641
▁lunch	-1642
▁pics	-1643
▁answ	-1644
▁weak	-1645
ayl	-1646
▁🎁	-1647
ican	-1648
▁son	-1649
▁step	-1650
av	-1651
▁@”	-1652
▁able	-1653
ose	-1654
▁strong	-1655
iting	-1656
▁clean	-1657
ior	-1658
▁hands	-1659
▁💰	-1660
▁wearing	-1661
▁hol	-1662
▁lie	-1663
ley	-1664
andom	-1665
▁del	-1666
▁tried	-1667
▁😵	-1668
agram	-1669
▁pussy	-1670
...	-1671
▁emo	-1672
▁different	-1673
▁yea	-1674
▁deal	-1675
14	-1676
kets	-1677
▁ilysm	-1678
gest	-1679
ese	-1680
▁movies	-1681
▁shout	-1682
▁ones	-1683
▁lady	-1684
▁gay	-1685
>!	-1686
▁ang	-1687
aaa	-1688
ica	-1689
▁ter	-1690
go	-1691
▁sucks	-1692
▁hungry	-1693
▁bey	-1694
▁worry	-1695
▁choc	-1696
amp	-1697
▁words	-1698
▁cousin	-1699
▁rid	-1700
▁fuckin	-1701
▁reply	-1702
▁young	-1703
▁trust	-1704
▁rock	-1705
▁pan	-1706
▁problem	-1707
▁booty	-1708
▁happened	-1709
▁🙋	-1710
▁sme	-1711
▁dur	-1712
▁shopping	-1713
▁instagram	-1714
ici	-1715
▁stre	-1716
▁ge	-1717
▁valent	-1718
▁hopefully	-1719
▁cor	-1720
▁snow	-1721
ically	-1722
ages	-1723
▁fire	-1724
ffe	-1725
iew	-1726
▁hahahaha	-1727
ane	-1728
ole	-1729
ept	-1730
▁kno	-1731
▁pres	-1732
▁emoj	-1733
▁ign	-1734
▁nap	-1735
▁💏	-1736
▁followers	-1737
▁😲	-1738
▁cat	-1739
▁ext	-1740
love	-1741
set	-1742
ned	-1743
▁chocol	-1744
lex	-1745
ately	-1746
▁fake	-1747
▁ride	-1748
right	-1749
reci	-1750
plain	-1751
▁cannot	-1752
▁bought	-1753
▁loved	-1754
ead	-1755
▁exactly	-1756
og	-1757
▁fresh	-1758
▁smell	-1759
▁pap	-1760
ics	-1761
▁worth	-1762
▁sitting	-1763
▁comple	-1764
▁giving	-1765
▁sexy	-1766
▁gun	-1767
fast	-1768
ald	-1769
▁leaving	-1770
▁es	-1771
▁skin	-1772
▁mum	-1773
▁driving	-1774
▁seem	-1775
▁walking	-1776
▁appreci	-1777
▁shower	-1778
ual	-1779
kin	-1780
▁comp	-1781
▁lets	-1782
oss	-1783
▁bday	-1784
▁sam	-1785
▁mama	-1786
▁dele	-1787
▁bot	-1788
▁book	-1789
oh	-1790
▁lord	-1791
▁cloth	-1792
▁looked	-1793
▁ner	-1794
▁dra	-1795
▁bull	-1796
▁ve	-1797
▁dep	-1798
▁homework	-1799
▁group	-1800
▁bb	-1801
ict	-1802
▁answer	-1803
▁pract	-1804
inc	-1805
▁jack	-1806
▁surpr	-1807
ries	-1808
▁chocolate	-1809
▁breakfast	-1810
▁hom	-1811
gin	-1812
▁ash	-1813
▁holiday	-1814
ax	-1815
▁bud	-1816
▁hello	-1817
ards	-1818
▁absolutely	-1819
▁🏀	-1820
▁🙆	-1821
▁💝	-1822
▁yours	-1823
▁hug	-1824
▁games	-1825
yy	-1826
▁clothes	-1827
▁dou	-1828
▁aren	-1829
ail	-1830
▁epis	-1831
▁offici	-1832
omb	-1833
▁tow	-1834
form	-1835
▁finna	-1836
▁ate	-1837
▁slow	-1838
▁remind	-1839
▁tour	-1840
to	-1841
▁running	-1842
▁chicken	-1843
▁mich	-1844
▁waking	-1845
▁arg	-1846
▁tatt	-1847
ursday	-1848
▁special	-1849
▁hall	-1850
ident	-1851
ga	-1852
▁texting	-1853
▁realize	-1854
▁daddy	-1855
▁dear	-1856
▁fel	-1857
▁train	-1858
▁omf	-1859
▁drin	-1860
▁hop	-1861
▁telling	-1862
osed	-1863
▁pet	-1864
▁lad	-1865
don	-1866
ily	-1867
▁😧	-1868
▁random	-1869
▁inv	-1870
▁which	-1871
▁lose	-1872
▁instead	-1873
▁smo	-1874
▁followed	-1875
▁during	-1876
gy	-1877
▁pat	-1878
▁wonderful	-1879
▁coo	-1880
10	-1881
▁brown	-1882
▁hurts	-1883
▁air	-1884
▁mouth	-1885
▁comm	-1886
▁ac	-1887
▁hella	-1888
▁cream	-1889
▁line	-1890
ucks	-1891
akes	-1892
▁thursday	-1893
ffee	-1894
▁short	-1895
▁ob	-1896
▁mill	-1897
head	-1898
ek	-1899
▁concert	-1900
▁stuck	-1901
▁awk	-1902
ife	-1903
▁notice	-1904
▁goals	-1905
▁bag	-1906
▁blessed	-1907
▁tattoo	-1908
rible	-1909
▁awake	-1910
▁whatever	-1911
▁convers	-1912
ition	-1913
?”	-1914
▁flo	-1915
▁watched	-1916
▁jun	-1917
▁touch	-1918
eee	-1919
▁quote	-1920
hn	-1921
▁exp	-1922
▁smoke	-1923
▁screen	-1924
▁biggest	-1925
▁sign	-1926
led	-1927
▁alright	-1928
▁coffee	-1929
▁avi	-1930
▁dat	-1931
ced	-1932
▁chip	-1933
book	-1934
▁vote	-1935
tw	-1936
▁jes	-1937
▁hm	-1938
ya	-1939
▁blow	-1940
▁omfg	-1941
lish	-1942
els	-1943
▁fil	-1944
ised	-1945
▁cheer	-1946
lla	-1947
▁nick	-1948
lix	-1949
orts	-1950
▁funn	-1951
▁ra	-1952
▁😮	-1953
▁❗	-1954
▁tweeting	-1955
▁chat	-1956
ents	-1957
15	-1958
▁totally	-1959
ract	-1960
▁ni	-1961
▁blue	-1962
▁outta	-1963
air	-1964
▁😯	-1965
▁three	-1966
▁tak	-1967
▁fut	-1968
tin	-1969
▁💸	-1970
aste	-1971
▁tuesday	-1972
▁braz	-1973
▁alb	-1974
▁rip	-1975
▁asf	-1976
▁😙	-1977
icks	-1978
je	-1979
▁🏼	-1980
▁jk	-1981
ken	-1982
▁dan	-1983
aaaa	-1984
▁mil	-1985
▁wind	-1986
▁mag	-1987
▁🏈	-1988
flix	-1989
sing	-1990
▁expect	-1991
ho	-1992
▁visit	-1993
▁amer	-1994
▁teac	-1995
▁dreams	-1996
line	-1997
▁front	-1998
▁bat	-1999
ka	-2000
morning	-2001
▁brazil	-2002
▁netflix	-2003
fr	-2004
▁hil	-2005
▁memor	-2006
▁holy	-2007
▁pur	-2008
▁crush	-2009
▁chris	-2010
ower	-2011
▁iph	-2012
▁calling	-2013
acked	-2014
▁queen	-2015
dd	-2016
▁til	-2017
vel	-2018
▁law	-2019
▁men	-2020
eth	-2021
▁gen	-2022
▁john	-2023
▁harry	-2024
▁⚽	-2025
▁future	-2026
oul	-2027
▁inc	-2028
ops	-2029
▁sim	-2030
▁worse	-2031
▁shirt	-2032
nesday	-2033
▁message	-2034
▁pie	-2035
▁🎂	-2036
▁supposed	-2037
fu	-2038
▁shaw	-2039
▁hy	-2040
▁singing	-2041
▁ly	-2042
▁pissed	-2043
▁strugg	-2044
▁killing	-2045
▁med	-2046
▁safe	-2047
▁@!	-2048
▁starts	-2049
▁save	-2050
arious	-2051
▁cuddle	-2052
▁support	-2053
▁deserve	-2054
▁🌸	-2055
▁city	-2056
"@:	-2057
▁butt	-2058
▁mex	-2059
▁cele	-2060
▁road	-2061
▁spring	-2062
▁selfie	-2063
ca	-2064
ied	-2065
erest	-2066
▁dire	-2067
▁songs	-2068
ape	-2069
▁emot	-2070
zz	-2071
▁freak	-2072
▁shoes	-2073
ming	-2074
▁wednesday	-2075
▁tickets	-2076
cle	-2077
▁awkward	-2078
▁tim	-2079
▁nights	-2080
▁loud	-2081
▁senior	-2082
▁practice	-2083
▁bow	-2084
▁finished	-2085
▁felt	-2086
▁ins	-2087
▁loving	-2088
▁news	-2089
▁bath	-2090
▁middle	-2091
▁hehe	-2092
▁aye	-2093
▁ari	-2094
▁cheese	-2095
▁episode	-2096
▁hum	-2097
▁beh	-2098
▁fab	-2099
▁minute	-2100
▁album	-2101
▁club	-2102
▁stom	-2103
▁plans	-2104
▁danc	-2105
▁dark	-2106
view	-2107
▁freaking	-2108
but	-2109
▁cutest	-2110
▁asking	-2111
yal	-2112
▁obs	-2113
uth	-2114
▁fly	-2115
▁speak	-2116
▁hilarious	-2117
▁tom	-2118
gr	-2119
▁mot	-2120
▁poor	-2121
▁street	-2122
▁iphone	-2123
▁reading	-2124
▁fit	-2125
▁ben	-2126
▁card	-2127
▁jac	-2128
▁jesus	-2129
▁sle	-2130
▁question	-2131
ahah	-2132
▁ment	-2133
▁busy	-2134
▁💅	-2135
▁tan	-2136
▁rather	-2137
▁lots	-2138
lier	-2139
▁knowing	-2140
▁crack	-2141
▁chance	-2142
ween	-2143
▁small	-2144
▁🏽	-2145
▁easy	-2146
▁woman	-2147
▁anyway	-2148
▁videos	-2149
ze	-2150
yle	-2151
▁imag	-2152
any	-2153
▁ent	-2154
▁mi	-2155
ba	-2156
others	-2157
mit	-2158
▁females	-2159
cially	-2160
▁grandma	-2161
ical	-2162
▁ruin	-2163
ccer	-2164
>?	-2165
▁mate	-2166
▁poss	-2167
▁near	-2168
aster	-2169
▁band	-2170
▁photo	-2171
ault	-2172
▁meant	-2173
▁needed	-2174
▁thot	-2175
▁princ	-2176
▁wo	-2177
▁oo	-2178
ai	-2179
▁cake	-2180
▁calls	-2181
▁huh	-2182
▁classes	-2183
ache	-2184
ef	-2185
▁match	-2186
▁ran	-2187
▁caught	-2188
▁❄	-2189
▁soccer	-2190
▁aust	-2191
ider	-2192
oop	-2193
aylor	-2194
▁stomach	-2195
>'	-2196
con	-2197
▁texts	-2198
gan	-2199
▁kick	-2200
▁living	-2201
shit	-2202
▁idc	-2203
▁obsess	-2204
ler	-2205
▁boring	-2206
real	-2207
▁nash	-2208
ize	-2209
!"	-2210
▁😶	-2211
▁shot	-2212
▁ri	-2213
fl	-2214
▁everytime	-2215
▁likes	-2216
▁alex	-2217
▁thinks	-2218
▁door	-2219
▁town	-2220
lling	-2221
▁teacher	-2222
▁😿	-2223
▁luke	-2224
▁upset	-2225
rt	-2226
▁final	-2227
▁ps	-2228
▁spo	-2229
va	-2230
▁state	-2231
▁basket	-2232
▁legs	-2233
▁block	-2234
▁celebr	-2235
▁earlier	-2236
iod	-2237
▁changed	-2238
>,	-2239
▁sy	-2240
▁imagine	-2241
gn	-2242
▁🎀	-2243
com	-2244
▁happens	-2245
▁fing	-2246
▁died	-2247
acking	-2248
la	-2249
▁nat	-2250
▁moms	-2251
▁bf	-2252
▁between	-2253
▁math	-2254
of	-2255
▁funniest	-2256
▁shoot	-2257
▁pot	-2258
▁fix	-2259
▁goodmorning	-2260
▁adv	-2261
▁messages	-2262
▁momma	-2263
room	-2264
tt	-2265
▁♡	-2266
ject	-2267
aked	-2268
▁round	-2269
▁wall	-2270
▁vs	-2271
▁ignore	-2272
▁merry	-2273
▁period	-2274
em	-2275
bar	-2276
▁current	-2277
▁played	-2278
▁nose	-2279
▁interest	-2280
▁fault	-2281
▁learn	-2282
rit	-2283
▁fool	-2284
▁favour	-2285
▁doll	-2286
res	-2287
▁nor	-2288
▁🎧	-2289
▁country	-2290
sos	-2291
▁💩	-2292
ael	-2293
▁didnt	-2294
used	-2295
▁hu	-2296
▁english	-2297
▁box	-2298
▁promise	-2299
▁shouldn	-2300
▁awh	-2301
▁order	-2302
▁wife	-2303
▁cap	-2304
>””	-2305
▁camer	-2306
▁😼	-2307
▁clos	-2308
▁uni	-2309
▁taylor	-2310
load	-2311
▁officially	-2312
ipp	-2313
▁mass	-2314
▁squad	-2315
pecially	-2316
udes	-2317
▁jer	-2318
▁pack	-2319
▁ahh	-2320
▁takes	-2321
▁appreciate	-2322
▁bby	-2323
▁doe	-2324
▁vine	-2325
▁princess	-2326
▁uh	-2327
▁keeps	-2328
ulous	-2329
▁spent	-2330
▁art	-2331
▁behind	-2332
▁nails	-2333
▁business	-2334
▁🌚	-2335
aring	-2336
▁prof	-2337
▁case	-2338
rew	-2339
ara	-2340
▁talked	-2341
etime	-2342
▁deep	-2343
lic	-2344
▁yas	-2345
!?	-2346
do	-2347
▁cons	-2348
brow	-2349
▁women	-2350
▁basketball	-2351
▁anybody	-2352
oun	-2353
▁park	-2354
▁//	-2355
▁realized	-2356
▁mile	-2357
▁youu	-2358
▁fair	-2359
▁mention	-2360
▁inside	-2361
▁goal	-2362
▁bra	-2363
oint	-2364
▁pos	-2365
ience	-2366
enn	-2367
▁💎	-2368
ield	-2369
anna	-2370
▁main	-2371
▁especially	-2372
▁lately	-2373
allen	-2374
▁camp	-2375
ey	-2376
▁mac	-2377
▁tm	-2378
▁☕	-2379
▁san	-2380
girl	-2381
▁angel	-2382
▁stars	-2383
▁nation	-2384
rs	-2385
▁thankyou	-2386
▁hat	-2387
▁tea	-2388
▁dry	-2389
▁yaa	-2390
▁study	-2391
▁sum	-2392
▁drinking	-2393
▁btw	-2394
▁span	-2395
ial	-2396
▁grade	-2397
▁scary	-2398
▁jus	-2399
bur	-2400
▁tears	-2401
irty	-2402
▁jam	-2403
aces	-2404
iff	-2405
▁putting	-2406
▁bang	-2407
▁🎄	-2408
▁sis	-2409
▁store	-2410
▁apart	-2411
▁yu	-2412
▁moving	-2413
▁💥	-2414
▁unfollow	-2415
fuck	-2416
▁daw	-2417
ays	-2418
▁attention	-2419
▁acting	-2420
▁pants	-2421
su	-2422
▁none	-2423
▁“	-2424
min	-2425
▁facebook	-2426
▁mix	-2427
cket	-2428
▁ca	-2429
▁sand	-2430
▁creep	-2431
wa	-2432
itt	-2433
▁whenever	-2434
!”	-2435
▁hurry	-2436
▁babies	-2437
ove	-2438
▁soul	-2439
aks	-2440
ads	-2441
▁lazy	-2442
asty	-2443
▁luv	-2444
▁bio	-2445
ense	-2446
▁accident	-2447
▁🙀	-2448
olo	-2449
▁sne	-2450
▁fig	-2451
▁@.	-2452
▁gunna	-2453
iet	-2454
tweet	-2455
▁dang	-2456
▁death	-2457
ters	-2458
▁ladies	-2459
appy	-2460
▁join	-2461
▁😦	-2462
cks	-2463
▁ik	-2464
▁👼	-2465
▁extra	-2466
▁turned	-2467
mp	-2468
▁ring	-2469
vious	-2470
ional	-2471
▁spot	-2472
▁struggle	-2473
▁wild	-2474
▁seems	-2475
▁tru	-2476
▁feet	-2477
▁attract	-2478
▁four	-2479
tain	-2480
▁✈	-2481
▁spending	-2482
▁rub	-2483
▁bill	-2484
▁eyebrow	-2485
▁ref	-2486
▁rad	-2487
▁teach	-2488
▁killed	-2489
▁pier	-2490
▁perform	-2491
▁ff	-2492
▁page	-2493
▁power	-2494
▁comment	-2495
▁⚾	-2496
▁hood	-2497
▁resp	-2498
uts	-2499
▁bare	-2500
▁challen	-2501
▁longer	-2502
▁💤	-2503
▁ev	-2504
▁falling	-2505
▁paper	-2506
▁gold	-2507
▁michael	-2508
▁share	-2509
▁scream	-2510
▁lights	-2511
▁bomb	-2512
▁norm	-2513
▁lowkey	-2514
▁base	-2515
▁👶	-2516
▁lmaoo	-2517
▁sky	-2518
let	-2519
alth	-2520
▁lou	-2521
▁heat	-2522
▁ny	-2523
▁conversation	-2524
▁plz	-2525
▁james	-2526
▁gosh	-2527
▁ele	-2528
▁works	-2529
▁goin	-2530
son	-2531
▁graduation	-2532
▁kat	-2533
▁upd	-2534
▁spanish	-2535
▁🍕	-2536
🇺🇸	-2537
▁july	-2538
ox	-2539
▁nd	-2540
▁lon	-2541
ico	-2542
▁tac	-2543
▁sending	-2544
▁king	-2545
for	-2546
▁currently	-2547
▁treat	-2548
che	-2549
▁conv	-2550
▁rob	-2551
▁dirty	-2552
▁figure	-2553
▁cow	-2554
▁weed	-2555
▁🏃	-2556
▁yess	-2557
▁smart	-2558
▁truth	-2559
▁ador	-2560
▁problems	-2561
▁prop	-2562
▁color	-2563
▁taken	-2564
▁depress	-2565
2014	-2566
▁staying	-2567
▁repl	-2568
astic	-2569
▁pen	-2570
▁green	-2571
▁lying	-2572
▁🐶	-2573
▁track	-2574
▁@,	-2575
▁loyal	-2576
▁disney	-2577
▁brought	-2578
ides	-2579
▁intern	-2580
▁valentine	-2581
bucks	-2582
fort	-2583
▁🌴	-2584
▁ta	-2585
▁bel	-2586
▁🍹	-2587
▁swim	-2588
that	-2589
▁fw	-2590
▁chur	-2591
▁🌹	-2592
▁ay	-2593
▁ger	-2594
lled	-2595
ific	-2596
what	-2597
▁emp	-2598
▁stal	-2599
▁tag	-2600
▁nom	-2601
▁den	-2602
▁warm	-2603
▁except	-2604
▁pool	-2605
donald	-2606
▁ban	-2607
▁present	-2608
▁import	-2609
▁aug	-2610
gs	-2611
▁soft	-2612
▁workout	-2613
sey	-2614
mb	-2615
▁starbucks	-2616
▁social	-2617
▁handle	-2618
▁cart	-2619
▁🌞	-2620
▁makeup	-2621
!!	-2622
▁💟	-2623
▁wedding	-2624
wor	-2625
▁rich	-2626
▁awe	-2627
▁💑	-2628
▁emoji	-2629
▁wanting	-2630
▁jay	-2631
ida	-2632
▁mal	-2633
▁nasty	-2634
▁craving	-2635
▁dist	-2636
▁thru	-2637
▁entire	-2638
▁favourite	-2639
▁!!	-2640
▁daught	-2641
▁key	-2642
use	-2643
ces	-2644
▁q	-2645
▁clear	-2646
▁🙇	-2647
ppy	-2648
▁outf	-2649
▁🎤	-2650
▁online	-2651
▁sleepy	-2652
▁🏻	-2653
▁cop	-2654
▁sar	-2655
ison	-2656
▁follows	-2657
ult	-2658
▁mcdonald	-2659
rd	-2660
iled	-2661
ummy	-2662
itive	-2663
▁sisters	-2664
▁important	-2665
▁glass	-2666
▁youre	-2667
▁jump	-2668
▁explain	-2669
▁church	-2670
▁gift	-2671
▁adorable	-2672
▁suppose	-2673
▁neck	-2674
▁jud	-2675
▁basically	-2676
▁mel	-2677
▁stick	-2678
▁window	-2679
ja	-2680
cy	-2681
▁kidding	-2682
▁matt	-2683
edu	-2684
ighb	-2685
▁pri	-2686
▁honey	-2687
▁pink	-2688
▁embar	-2689
bb	-2690
▁gives	-2691
ww	-2692
▁sense	-2693
▁scr	-2694
▁👸	-2695
▁bff	-2696
▁congrat	-2697
▁dancing	-2698
▁bri	-2699
ston	-2700
▁teeth	-2701
▁mfs	-2702
▁hoping	-2703
iced	-2704
▁direction	-2705
▁=	-2706
▁😽	-2707
▁score	-2708
mme	-2709
ooo	-2710
▁neighb	-2711
▁eyebrows	-2712
da	-2713
▁gas	-2714
▁memories	-2715
▁secret	-2716
▁somewhere	-2717
▁ive	-2718
<<	-2719
▁challenge	-2720
▁become	-2721
▁mir	-2722
▁shoutout	-2723
▁fish	-2724
▁mall	-2725
ato	-2726
ites	-2727
▁vac	-2728
nn	-2729
▁cover	-2730
▁bottle	-2731
▁obsessed	-2732
▁beer	-2733
▁bird	-2734
▁🍷	-2735
▁hea	-2736
▁&&	-2737
odu	-2738
▁huge	-2739
▁homie	-2740
▁august	-2741
▁level	-2742
lls	-2743
12	-2744
▁kar	-2745
▁anyways	-2746
▁facetime	-2747
▁fail	-2748
▁emojis	-2749
▁cross	-2750
▁seconds	-2751
ns	-2752
▁father	-2753
ital	-2754
▁married	-2755
▁weight	-2756
▁hallow	-2757
▁@'	-2758
ision	-2759
▁kim	-2760
▁beyon	-2761
cri	-2762
▁stor	-2763
▁horrible	-2764
▁fant	-2765
▁seme	-2766
▁needa	-2767
▁agree	-2768
shine	-2769
▁tweeted	-2770
▁attit	-2771
▁embarr	-2772
ille	-2773
rence	-2774
▁whats	-2775
▁valentines	-2776
▁lame	-2777
▁coach	-2778
▁thankful	-2779
▁using	-2780
▁>>>>	-2781
▁liked	-2782
bye	-2783
▁cost	-2784
▁enter	-2785
▁bullshit	-2786
▁along	-2787
▁ble	-2788
illy	-2789
▁🏾	-2790
▁obvious	-2791
▁winning	-2792
▁buddy	-2793
pm	-2794
▁zay	-2795
pa	-2796
▁congratul	-2797
▁ow	-2798
▁hangout	-2799
▁drake	-2800
hy	-2801
▁+	-2802
▁paid	-2803
▁pregn	-2804
▁pub	-2805
>..	-2806
▁stri	-2807
nch	-2808
▁everywhere	-2809
▁gettin	-2810
band	-2811
▁😸	-2812
ient	-2813
▁west	-2814
▁flor	-2815
over	-2816
ieber	-2817
▁taste	-2818
▁beyond	-2819
▁wc	-2820
▁semester	-2821
▁slept	-2822
▁embarrass	-2823
▁finals	-2824
▁interview	-2825
▁jord	-2826
ern	-2827
▁headache	-2828
▁begin	-2829
▁write	-2830
▁meeting	-2831
▁charger	-2832
▁regret	-2833
▁boss	-2834
ians	-2835
▁confused	-2836
▁brothers	-2837
▁aunt	-2838
▁ticket	-2839
▁double	-2840
ute	-2841
cu	-2842
ondon	-2843
▁daughter	-2844
▁laying	-2845
▁complain	-2846
▁quite	-2847
▁dev	-2848
▁det	-2849
▁🔐	-2850
▁gf	-2851
▁trans	-2852
ips	-2853
▁respect	-2854
▁aut	-2855
▁halloween	-2856
▁mist	-2857
▁complet	-2858
▁shots	-2859
▁shift	-2860
▁🌵	-2861
▁sore	-2862
now	-2863
▁🍺	-2864
▁broken	-2865
▁lookin	-2866
cing	-2867
▁million	-2868
▁choo	-2869
▁wont	-2870
ene	-2871
▁buying	-2872
▁mins	-2873
▁lemme	-2874
▁fro	-2875
how	-2876
nna	-2877
well	-2878
▁tall	-2879
▁blood	-2880
gas	-2881
▁delete	-2882
▁bun	-2883
▁heaven	-2884
▁health	-2885
str	-2886
▁ms	-2887
▁austin	-2888
▁sunshine	-2889
▁compl	-2890
▁)	-2891
▁brand	-2892
ugs	-2893
▁london	-2894
▁fif	-2895
ror	-2896
▁selfies	-2897
▁naw	-2898
tu	-2899
▁niall	-2900
▁doct	-2901
like	-2902
▁bright	-2903
▁🎅	-2904
▁childish	-2905
▁floor	-2906
▁letting	-2907
▁happening	-2908
▁bowl	-2909
▁babes	-2910
▁🙉	-2911
▁nope	-2912
▁against	-2913
▁☝	-2914
▁plus	-2915
▁tex	-2916
▁turning	-2917
▁>	-2918
▁female	-2919
▁wet	-2920
▁hasn	-2921
▁passed	-2922
▁gain	-2923
▁june	-2924
▁record	-2925
anda	-2926
▁🌊	-2927
▁barely	-2928
▁ka	-2929
▁evening	-2930
▁bigg	-2931
▁wishing	-2932
▁peace	-2933
▁completely	-2934
lin	-2935
▁walked	-2936
▁cert	-2937
ades	-2938
lan	-2939
▁nic	-2940
▁👉	-2941
ouble	-2942
▁asap	-2943
port	-2944
▁quit	-2945
▁worried	-2946
ark	-2947
ills	-2948
ams	-2949
▁fighting	-2950
▁attitude	-2951
▁flight	-2952
vous	-2953
ahaha	-2954
▁dy	-2955
ony	-2956
airs	-2957
▁steal	-2958
▁@"	-2959
▁apple	-2960
▁bieber	-2961
▁attractive	-2962
▁kit	-2963
▁push	-2964
ery	-2965
▁pleas	-2966
▁florida	-2967
▁south	-2968
▁wash	-2969
▁relax	-2970
▁schedu	-2971
life	-2972
ided	-2973
▁vir	-2974
▁happiness	-2975
amps	-2976
▁apparent	-2977
▁jan	-2978
▁hmu	-2979
ahh	-2980
>...	-2981
▁<<	-2982
▁personal	-2983
▁tight	-2984
▁bouta	-2985
▁pee	-2986
▁sav	-2987
antly	-2988
▁dms	-2989
▁bell	-2990
▁punch	-2991
▁ken	-2992
▁blast	-2993
▁ft	-2994
▁josh	-2995
▁baseball	-2996
arm	-2997
icked	-2998
▁dropped	-2999
▁ohh	-3000
eline	-3001
▁age	-3002
▁header	-3003
▁reun	-3004
ora	-3005
inn	-3006
▁🔪	-3007
▁ot	-3008
rol	-3009
▁american	-3010
▁um	-3011
▁project	-3012
ky	-3013
▁fave	-3014
▁🍸	-3015
▁cried	-3016
▁surprise	-3017
▁;	-3018
▁hay	-3019
▁piece	-3020
utch	-3021
▁marry	-3022
▁teen	-3023
rr	-3024
▁lip	-3025
▁event	-3026
▁wif	-3027
▁draw	-3028
pet	-3029
▁shows	-3030
ok	-3031
ume	-3032
▁tripp	-3033
▁allow	-3034
▁nervous	-3035
▁tun	-3036
▁mod	-3037
▁apparently	-3038
aff	-3039
▁winter	-3040
▁congratulations	-3041
ham	-3042
▁radio	-3043
▁opp	-3044
▁jess	-3045
▁fill	-3046
▁wcw	-3047
noon	-3048
umped	-3049
▁pal	-3050
▁🍆	-3051
▁grab	-3052
▁hus	-3053
▁mis	-3054
▁texted	-3055
▁exams	-3056
▁exper	-3057
▁pregnant	-3058
▁cutie	-3059
▁choice	-3060
gar	-3061
▁pol	-3062
▁alive	-3063
▁cos	-3064
▁egg	-3065
box	-3066
▁eh	-3067
▁cudd	-3068
▁sol	-3069
▁bi	-3070
▁button	-3071
▁trouble	-3072
▁🚶	-3073
boy	-3074
▁lips	-3075
▁🎓	-3076
▁louis	-3077
▁ja	-3078
▁possible	-3079
ino	-3080
▁insp	-3081
▁mia	-3082
▁rele	-3083
▁poin	-3084
ular	-3085
coming	-3086
▁tit	-3087
gre	-3088
▁truck	-3089
▁dun	-3090
▁noticed	-3091
read	-3092
▁liam	-3093
ising	-3094
hi	-3095
▁eve	-3096
ator	-3097
▁smi	-3098
▁butter	-3099
▁jacob	-3100
▁link	-3101
erg	-3102
cking	-3103
she	-3104
▁sometime	-3105
▁exist	-3106
ada	-3107
▁👈	-3108
▁blocked	-3109
▁wine	-3110
▁twice	-3111
▁tor	-3112
▁jen	-3113
▁bru	-3114
▁losing	-3115
▁complete	-3116
rect	-3117
▁older	-3118
▁interesting	-3119
▁rev	-3120
▁beauty	-3121
bt	-3122
▁ema	-3123
▁dogs	-3124
▁disapp	-3125
▁zayn	-3126
▁talkin	-3127
▁breaking	-3128
▁crap	-3129
▁subtweet	-3130
▁snapchats	-3131
▁sweat	-3132
▁row	-3133
ford	-3134
00	-3135
▁mentions	-3136
▁pair	-3137
▁rude	-3138
▁fest	-3139
ative	-3140
▁shorts	-3141
▁thirst	-3142
▁cookies	-3143
▁yep	-3144
▁earth	-3145
ung	-3146
▁grown	-3147
▁hearing	-3148
▁breat	-3149
--	-3150
▁afternoon	-3151
▁turnt	-3152
fer	-3153
▁dem	-3154
can	-3155
▁emotional	-3156
▁|	-3157
usted	-3158
rap	-3159
ville	-3160
▁normal	-3161
▁outfit	-3162
▁dav	-3163
▁lonely	-3164
▁~	-3165
▁bank	-3166
▁rap	-3167
▁ry	-3168
▁trave	-3169
▁vo	-3170
▁hanging	-3171
▁dawg	-3172
ril	-3173
▁laughed	-3174
▁finding	-3175
▁stopped	-3176
de	-3177
▁^	-3178
▁🍃	-3179
▁unless	-3180
▁commer	-3181
▁note	-3182
▁hott	-3183
▁gotten	-3184
med	-3185
▁pau	-3186
▁💭	-3187
▁french	-3188
bed	-3189
▁fm	-3190
▁due	-3191
▁ky	-3192
ids	-3193
▁prep	-3194
▁mak	-3195
▁threw	-3196
uary	-3197
▁stfu	-3198
▁mm	-3199
arch	-3200
▁bunch	-3201
eed	-3202
▁amount	-3203
▁ahead	-3204
▁north	-3205
▁uk	-3206
▁legit	-3207
down	-3208
▁ess	-3209
otle	-3210
▁spree	-3211
▁yup	-3212
▁trynna	-3213
▁gir	-3214
wards	-3215
▁uncle	-3216
oat	-3217
▁dom	-3218
▁👙	-3219
hol	-3220
▁lab	-3221
▁ip	-3222
▁sau	-3223
que	-3224
amed	-3225
▁tmr	-3226
▁💆	-3227
▁du	-3228
▁vict	-3229
cl	-3230
urn	-3231
▁aa	-3232
▁seat	-3233
▁naked	-3234
▁certain	-3235
light	-3236
▁ital	-3237
▁hmm	-3238
▁proper	-3239
▁jokes	-3240
▁ord	-3241
▁player	-3242
ets	-3243
▁freshman	-3244
▁kh	-3245
▁chipotle	-3246
▁photos	-3247
▁>>>	-3248
▁feed	-3249
▁cus	-3250
▁mv	-3251
▁terrible	-3252
just	-3253
▁gang	-3254
▁goodbye	-3255
▁others	-3256
gers	-3257
▁mas	-3258
▁twin	-3259
▁mrs	-3260
▁irrit	-3261
good	-3262
▁smoking	-3263
ices	-3264
▁stories	-3265
▁control	-3266
▁hosp	-3267
▁puppy	-3268
▁sir	-3269
▁assh	-3270
▁maj	-3271
▁truly	-3272
cus	-3273
▁succ	-3274
▁💉	-3275
ities	-3276
▁candy	-3277
▁ew	-3278
▁bac	-3279
▁positive	-3280
vy	-3281
▁kay	-3282
▁drama	-3283
▁internet	-3284
▁hist	-3285
af	-3286
prob	-3287
▁mommy	-3288
▁press	-3289
▁faith	-3290
▁champ	-3291
13	-3292
▁six	-3293
▁court	-3294
▁questions	-3295
▁sep	-3296
gu	-3297
▁🐱	-3298
▁fb	-3299
▁manag	-3300
▁wide	-3301
▁gar	-3302
ging	-3303
▁rom	-3304
▁alot	-3305
▁🇺🇸	-3306
▁schedule	-3307
▁shall	-3308
▁si	-3309
hin	-3310
▁calm	-3311
▁stage	-3312
>-	-3313
▁wifi	-3314
▁amo	-3315
▁wat	-3316
imp	-3317
▁obviously	-3318
▁jordan	-3319
▁vi	-3320
▁rece	-3321
iny	-3322
oof	-3323
▁cas	-3324
▁motiv	-3325
gi	-3326
▁sneak	-3327
▁friendship	-3328
▁eff	-3329
▁grey	-3330
luck	-3331
▁gal	-3332
▁anytime	-3333
▁vacation	-3334
iot	-3335
wood	-3336
▁anim	-3337
▁bucket	-3338
▁ridic	-3339
▁shitty	-3340
▁youtu	-3341
▁surprised	-3342
▁bringing	-3343
bing	-3344
tom	-3345
▁slide	-3346
▁🌺	-3347
▁lang	-3348
ged	-3349
▁orange	-3350
▁showing	-3351
▁screensh	-3352
▁notific	-3353
elves	-3354
▁gh	-3355
▁studying	-3356
▁canc	-3357
under	-3358
▁taco	-3359
men	-3360
▁choose	-3361
▁deleted	-3362
▁whoever	-3363
anks	-3364
▁mexico	-3365
▁trend	-3366
▁fol	-3367
▁🎵	-3368
▁husband	-3369
▁handsome	-3370
▁straw	-3371
ross	-3372
ago	-3373
▁kept	-3374
▁ariana	-3375
▁success	-3376
▁chic	-3377
▁situ	-3378
▁hospital	-3379
▁history	-3380
▁build	-3381
▁five	-3382
▁bon	-3383
▁born	-3384
▁entertain	-3385
▁blond	-3386
▁mike	-3387
▁easter	-3388
▁cy	-3389
▁thick	-3390
▁ridiculous	-3391
▁flow	-3392
▁bigger	-3393
ises	-3394
▁port	-3395
off	-3396
▁skip	-3397
?!?	-3398
▁allah	-3399
▁bathroom	-3400
▁bum	-3401
▁milk	-3402
▁wen	-3403
▁throwing	-3404
▁salty	-3405
▁smiling	-3406
▁update	-3407
▁vers	-3408
▁german	-3409
▁hip	-3410
▁beef	-3411
▁east	-3412
▁xd	-3413
▁players	-3414
▁tat	-3415
▁shame	-3416
▁hitting	-3417
lock	-3418
11	-3419
▁cousins	-3420
idge	-3421
▁thoughts	-3422
▁🌻	-3423
▁tells	-3424
▁twer	-3425
▁lives	-3426
▁throat	-3427
▁xox	-3428
▁texas	-3429
▁decided	-3430
ona	-3431
this	-3432
▁comfort	-3433
zen	-3434
▁land	-3435
annah	-3436
▁juice	-3437
vs	-3438
fc	-3439
▁worked	-3440
hew	-3441
▁van	-3442
▁hers	-3443
▁famous	-3444
berry	-3445
▁alarm	-3446
▁fantastic	-3447
▁🌟	-3448
▁tha	-3449
▁gee	-3450
▁hon	-3451
▁awards	-3452
▁complim	-3453
▁et	-3454
▁posted	-3455
▁boobs	-3456
▁ol	-3457
bre	-3458
▁april	-3459
▁£	-3460
▁keeping	-3461
▁les	-3462
▁mark	-3463
▁thx	-3464
▁film	-3465
▁size	-3466
▁finger	-3467
ature	-3468
▁woo	-3469
▁✔	-3470
sc	-3471
▁contin	-3472
▁👿	-3473
▁phys	-3474
▁lap	-3475
▁jul	-3476
best	-3477
▁beg	-3478
▁human	-3479
▁mur	-3480
▁disappoint	-3481
▁scot	-3482
▁lock	-3483
▁bal	-3484
▁bother	-3485
▁.”	-3486
▁fries	-3487
▁nicki	-3488
▁reminds	-3489
▁cla	-3490
▁ctf	-3491
▁🐸	-3492
▁flip	-3493
apped	-3494
▁office	-3495
▁talent	-3496
▁gener	-3497
▁fml	-3498
gging	-3499
▁hotel	-3500
▁🏆	-3501
▁blunt	-3502
▁mines	-3503
▁series	-3504
▁soph	-3505
ggy	-3506
inese	-3507
>""	-3508
atest	-3509
▁accidentally	-3510
▁usually	-3511
▁hates	-3512
▁strang	-3513
▁whe	-3514
▁?!	-3515
▁bob	-3516
▁vot	-3517
dam	-3518
▁max	-3519
▁produ	-3520
▁idol	-3521
ari	-3522
lley	-3523
▁addic	-3524
▁vegas	-3525
inal	-3526
▁oops	-3527
illa	-3528
▁bear	-3529
▁pulled	-3530
▁insta	-3531
▁porn	-3532
fic	-3533
mate	-3534
▁ffs	-3535
▁advice	-3536
▁glo	-3537
▁wings	-3538
▁brain	-3539
▁chinese	-3540
ments	-3541
▁enjoying	-3542
▁kik	-3543
▁👻	-3544
apping	-3545
▁perf	-3546
ls	-3547
".	-3548
ancy	-3549
▁happiest	-3550
ession	-3551
▁skinny	-3552
▁simple	-3553
""	-3554
▁moon	-3555
ches	-3556
ses	-3557
▁arms	-3558
ges	-3559
irts	-3560
py	-3561
▁greatest	-3562
cr	-3563
▁york	-3564
cohol	-3565
▁burn	-3566
▁☔	-3567
▁solo	-3568
▁🍑	-3569
▁enjoyed	-3570
tr	-3571
▁dope	-3572
▁fingers	-3573
▁respond	-3574
▁nudes	-3575
▁national	-3576
▁public	-3577
16	-3578
▁😾	-3579
▁shawty	-3580
ila	-3581
▁download	-3582
18	-3583
▁fucks	-3584
▁praying	-3585
▁kisses	-3586
ita	-3587
▁growing	-3588
▁form	-3589
▁🌀	-3590
▁ko	-3591
▁dj	-3592
__	-3593
rest	-3594
iding	-3595
▁dressed	-3596
▁hahahahaha	-3597
ague	-3598
▁switch	-3599
▁saved	-3600
aron	-3601
▁lebr	-3602
your	-3603
ensive	-3604
▁cance	-3605
ivers	-3606
dom	-3607
▁excuse	-3608
▁cru	-3609
▁america	-3610
ti	-3611
▁youtube	-3612
▁major	-3613
▁ended	-3614
ric	-3615
▁doubt	-3616
▁alcohol	-3617
▁catching	-3618
▁gab	-3619
▁mexican	-3620
▁field	-3621
wich	-3622
▁spoil	-3623
sup	-3624
▁shes	-3625
cé	-3626
▁books	-3627
▁massage	-3628
mil	-3629
▁trash	-3630
▁anywhere	-3631
ctive	-3632
▁sharing	-3633
▁angry	-3634
ych	-3635
▁cooking	-3636
▁talks	-3637
▁kevin	-3638
▁midnight	-3639
▁daily	-3640
▁shake	-3641
▁jeans	-3642
▁const	-3643
▁weren	-3644
▁ilove	-3645
ker	-3646
bab	-3647
▁arm	-3648
▁suit	-3649
▁descri	-3650
ading	-3651
iiii	-3652
▁jon	-3653
▁prolly	-3654
▁cred	-3655
▁carter	-3656
▁cameron	-3657
▁closer	-3658
▁raining	-3659
▁non	-3660
▁wondering	-3661
▁hugs	-3662
den	-3663
▁accept	-3664
▁tree	-3665
▁💵	-3666
▁tong	-3667
▁hating	-3668
▁flat	-3669
▁hurting	-3670
▁shades	-3671
yyy	-3672
uit	-3673
▁petty	-3674
▁cent	-3675
▁names	-3676
▁dnt	-3677
ds	-3678
fish	-3679
▁cheers	-3680
▁mah	-3681
▁steph	-3682
▁hook	-3683
gaf	-3684
▁🚗	-3685
▁accur	-3686
nie	-3687
▁ways	-3688
▁convo	-3689
▁serv	-3690
▁kan	-3691
▁breathe	-3692
▁harder	-3693
▁glasses	-3694
▁unc	-3695
▁hes	-3696
▁💫	-3697
ifts	-3698
▁hoo	-3699
▁deb	-3700
▁peep	-3701
phones	-3702
▁messed	-3703
▁graduate	-3704
iors	-3705
2015	-3706
▁shawn	-3707
▁ending	-3708
▁tht	-3709
▁sort	-3710
▁sweetest	-3711
▁🍫	-3712
▁mcm	-3713
asted	-3714
▁goo	-3715
▁react	-3716
▁writing	-3717
▁table	-3718
▁bry	-3719
▁mvp	-3720
▁sports	-3721
▁bs	-3722
▁waste	-3723
▁david	-3724
▁balls	-3725
▁stole	-3726
▁member	-3727
icking	-3728
▁drinks	-3729
ival	-3730
▁turns	-3731
▁💣	-3732
▁ratch	-3733
▁lebron	-3734
**	-3735
esh	-3736
▁thunder	-3737
ural	-3738
▁judge	-3739
▁ship	-3740
▁🍴	-3741
ez	-3742
▁attack	-3743
▁lake	-3744
very	-3745
bel	-3746
▁ordered	-3747
▁decide	-3748
▁ctfu	-3749
▁brill	-3750
▁style	-3751
▁ten	-3752
achel	-3753
▁email	-3754
▁hill	-3755
▁annoyed	-3756
▁frozen	-3757
▁dub	-3758
▁spell	-3759
▁quiet	-3760
▁ray	-3761
▁homecoming	-3762
▁sell	-3763
ayla	-3764
▁doin	-3765
▁correct	-3766
▁doctor	-3767
>"”	-3768
▁fle	-3769
▁asshole	-3770
▁dating	-3771
▁across	-3772
▁ruined	-3773
▁bottom	-3774
selves	-3775
▁lmfaoo	-3776
und	-3777
▁helping	-3778
▁stayed	-3779
▁bay	-3780
▁smells	-3781
▁consider	-3782
▁paul	-3783
▁chicago	-3784
▁😗	-3785
▁bloody	-3786
▁kca	-3787
▁oct	-3788
▁reco	-3789
▁volley	-3790
ios	-3791
▁?”	-3792
▁chann	-3793
▁holding	-3794
ki	-3795
boys	-3796
▁phones	-3797
▁reach	-3798
▁yah	-3799
▁wol	-3800
▁cares	-3801
sea	-3802
▁panc	-3803
▁lauren	-3804
▁pep	-3805
▁pill	-3806
▁embarrassing	-3807
▁fck	-3808
▁training	-3809
▁absolute	-3810
▁view	-3811
▁cock	-3812
ani	-3813
▁march	-3814
via	-3815
cal	-3816
hood	-3817
▁fur	-3818
▁tyler	-3819
cha	-3820
▁breath	-3821
works	-3822
▁media	-3823
▁arri	-3824
▁nep	-3825
▁conne	-3826
▁often	-3827
▁sha	-3828
▁lex	-3829
▁official	-3830
▁gram	-3831
▁ore	-3832
why	-3833
▁sold	-3834
▁screaming	-3835
▁bacon	-3836
▁😺	-3837
19	-3838
▁chel	-3839
cious	-3840
oon	-3841
▁aud	-3842
uuu	-3843
▁buff	-3844
▁stressed	-3845
▁hype	-3846
▁price	-3847
▁pound	-3848
▁traff	-3849
▁places	-3850
▁hardest	-3851
▁cleaning	-3852
▁ham	-3853
▁profile	-3854
▁joe	-3855
allas	-3856
▁picked	-3857
gon	-3858
▁conversations	-3859
▁.@	-3860
▁brit	-3861
▁psych	-3862
cess	-3863
▁aha	-3864
ending	-3865
▁loads	-3866
▁feelin	-3867
▁camera	-3868
▁planning	-3869
sa	-3870
▁clearly	-3871
▁nie	-3872
▁jersey	-3873
▁cookie	-3874
▁smooth	-3875
▁jim	-3876
▁cri	-3877
▁tattoos	-3878
▁blonde	-3879
▁coll	-3880
▁volleyball	-3881
▁mic	-3882
▁nail	-3883
ounce	-3884
▁whip	-3885
▁💐	-3886
▁bread	-3887
▁blame	-3888
ibly	-3889
list	-3890
▁healthy	-3891
▁lastnight	-3892
▁relationships	-3893
top	-3894
▁screw	-3895
▁⛄	-3896
raid	-3897
ini	-3898
▁lar	-3899
iant	-3900
▁duh	-3901
▁addicted	-3902
▁sto	-3903
▁silly	-3904
▁ak	-3905
ows	-3906
▁prote	-3907
▁jake	-3908
▁student	-3909
▁notifications	-3910
▁third	-3911
▁belly	-3912
▁extre	-3913
▁chest	-3914
▁inspir	-3915
▁tech	-3916
▁👽	-3917
▁ey	-3918
50	-3919
▁forreal	-3920
▁tongue	-3921
▁closed	-3922
▁ell	-3923
▁virgin	-3924
▁rememb	-3925
▁eur	-3926
▁sudd	-3927
▁cho	-3928
▁hide	-3929
▁🍁	-3930
▁legend	-3931
cut	-3932
▁pand	-3933
▁known	-3934
▁remembered	-3935
▁sandwich	-3936
▁los	-3937
▁bike	-3938
▁afraid	-3939
die	-3940
▁breaks	-3941
▁annivers	-3942
▁sudden	-3943
▁⚡	-3944
▁happier	-3945
▁nearly	-3946
▁league	-3947
mie	-3948
▁💄	-3949
▁hw	-3950
▁fash	-3951
ado	-3952
▁exciting	-3953
▁situation	-3954
▁repeat	-3955
▁meal	-3956
▁argue	-3957
▁🍀	-3958
thank	-3959
▁cough	-3960
▁moved	-3961
ech	-3962
▁blowing	-3963
▁invite	-3964
▁chilling	-3965
▁tough	-3966
grees	-3967
rick	-3968
ola	-3969
▁victor	-3970
▁brings	-3971
board	-3972
▁ryan	-3973
.!	-3974
▁airport	-3975
▁playin	-3976
▁nephew	-3977
ateful	-3978
ito	-3979
ergy	-3980
▁mary	-3981
▁knock	-3982
amb	-3983
▁sweetheart	-3984
▁lies	-3985
uing	-3986
▁station	-3987
▁mut	-3988
▁admit	-3989
▁apartment	-3990
▁joy	-3991
▁lic	-3992
▁awful	-3993
itchen	-3994
▁dallas	-3995
▁rac	-3996
▁advent	-3997
▁leaves	-3998
▁grades	-3999
least	-4000
▁allowed	-4001
▁actual	-4002
iley	-4003
▁thirsty	-4004
▁express	-4005
▁followback	-4006
▁cars	-4007
ero	-4008
>”"	-4009
▁cats	-4010
▁shy	-4011
▁goodluck	-4012
▁🌈	-4013
▁service	-4014
▁longest	-4015
▁incred	-4016
▁traffic	-4017
▁nun	-4018
▁🍰	-4019
▁flex	-4020
▁degrees	-4021
>>>>	-4022
▁sweetie	-4023
org	-4024
ended	-4025
▁idgaf	-4026
rrr	-4027
▁mam	-4028
▁lat	-4029
▁essay	-4030
▁ratchet	-4031
▁cir	-4032
▁beyoncé	-4033
ues	-4034
▁requ	-4035
▁priv	-4036
▁celebrate	-4037
▁kitchen	-4038
▁lawd	-4039
ream	-4040
omy	-4041
▁cali	-4042
▁exha	-4043
▁beginning	-4044
tion	-4045
bu	-4046
hop	-4047
ex	-4048
▁fabulous	-4049
▁--	-4050
olog	-4051
▁learned	-4052
▁spam	-4053
eday	-4054
▁dads	-4055
ht	-4056
▁perfection	-4057
▁profess	-4058
▁experience	-4059
▁prog	-4060
▁phil	-4061
▁channel	-4062
iana	-4063
▁..	-4064
▁frfr	-4065
▁becom	-4066
▁anniversary	-4067
usting	-4068
▁cash	-4069
▁gut	-4070
chool	-4071
ustr	-4072
▁cust	-4073
▁clutch	-4074
▁spir	-4075
▁nerves	-4076
▁opin	-4077
▁brilliant	-4078
▁england	-4079
vered	-4080
▁riding	-4081
▁mart	-4082
▁kills	-4083
thanks	-4084
▁kicked	-4085
respect	-4086
gl	-4087
▁atleast	-4088
▁trap	-4089
▁chap	-4090
▁puts	-4091
▁temp	-4092
▁ron	-4093
bl	-4094
▁teachers	-4095
▁weekends	-4096
▁charac	-4097
▁smith	-4098
▁ground	-4099
▁claim	-4100
▁🙍	-4101
▁folks	-4102
miss	-4103
▁idiot	-4104
▁lead	-4105
▁ends	-4106
▁plane	-4107
▁scar	-4108
▁commercial	-4109
▁wassup	-4110
▁hannah	-4111
▁grind	-4112
lee	-4113
▁mig	-4114
mart	-4115
▁showed	-4116
17	-4117
▁softball	-4118
▁comfortable	-4119
acks	-4120
ograp	-4121
▁hero	-4122
▁company	-4123
▁crew	-4124
ased	-4125
with	-4126
▁performance	-4127
▁nv	-4128
▁jail	-4129
▁version	-4130
▁swimming	-4131
▁pll	-4132
▁nut	-4133
▁crow	-4134
▁miami	-4135
pin	-4136
ell	-4137
▁deserves	-4138
?!?!	-4139
▁holidays	-4140
▁bor	-4141
▁goss	-4142
▁spider	-4143
▁favorites	-4144
▁pleasure	-4145
▁bestfriends	-4146
▁dudes	-4147
▁pac	-4148
▁havent	-4149
▁saving	-4150
happy	-4151
▁plays	-4152
▁jum	-4153
><	-4154
▁space	-4155
▁mcdonalds	-4156
mar	-4157
▁ram	-4158
ants	-4159
▁corner	-4160
▁lif	-4161
rics	-4162
▁coup	-4163
▁🏊	-4164
▁””	-4165
▁rough	-4166
▁nowhere	-4167
▁disrespect	-4168
▁neg	-4169
▁shor	-4170
▁kath	-4171
▁smash	-4172
▁woah	-4173
vant	-4174
ags	-4175
▁waa	-4176
▁accurate	-4177
rie	-4178
▁"@	-4179
▁twins	-4180
▁rice	-4181
tember	-4182
▁expensive	-4183
▁miles	-4184
▁storm	-4185
▁wis	-4186
▁mane	-4187
▁dip	-4188
▁burger	-4189
ering	-4190
▁planned	-4191
▁shits	-4192
▁screenshot	-4193
▁tay	-4194
▁☁	-4195
▁parking	-4196
▁sele	-4197
▁...	-4198
ron	-4199
pool	-4200
▁loooo	-4201
▁magic	-4202
lit	-4203
▁pandora	-4204
▁rose	-4205
ring	-4206
ala	-4207
kk	-4208
▁reality	-4209
▁cheat	-4210
▁sugar	-4211
▁fear	-4212
▁reasons	-4213
▁darling	-4214
▁impress	-4215
▁snaps	-4216
▁seniors	-4217
away	-4218
▁arguing	-4219
▁dey	-4220
▁motivation	-4221
anny	-4222
▁parties	-4223
▁speaking	-4224
▁september	-4225
ossible	-4226
▁socks	-4227
▁faces	-4228
▁wolf	-4229
▁hearts	-4230
▁direct	-4231
shi	-4232
▁heav	-4233
icious	-4234
▁award	-4235
▁🍦	-4236
▁hottest	-4237
ien	-4238
ober	-4239
▁tmrw	-4240
▁easily	-4241
▁himself	-4242
days	-4243
▁campus	-4244
▁mee	-4245
▁cast	-4246
▁gard	-4247
jo	-4248
▁sarah	-4249
>/7	-4250
▁surv	-4251
▁holly	-4252
▁chillin	-4253
▁twist	-4254
▁children	-4255
▁stun	-4256
▁frank	-4257
▁deli	-4258
▁ll	-4259
▁difference	-4260
▁rick	-4261
▁pun	-4262
▁der	-4263
▁chelsea	-4264
▁energy	-4265
▁changing	-4266
▁frustr	-4267
▁easier	-4268
▁wood	-4269
▁board	-4270
▁chips	-4271
▁euro	-4272
lyn	-4273
▁facts	-4274
▁dig	-4275
eds	-4276
▁adventure	-4277
▁txt	-4278
▁eb	-4279
▁tar	-4280
▁kend	-4281
▁liking	-4282
▁qual	-4283
▁disg	-4284
▁goog	-4285
100	-4286
▁paying	-4287
▁timeline	-4288
▁anx	-4289
▁daniel	-4290
▁picking	-4291
▁gossip	-4292
▁wrote	-4293
▁lyrics	-4294
▁receive	-4295
asm	-4296
▁tax	-4297
▁impossible	-4298
▁cuddling	-4299
▁wishes	-4300
▁custom	-4301
▁awhile	-4302
▁knee	-4303
▁boyfriends	-4304
erry	-4305
▁poo	-4306
▁slay	-4307
▁liver	-4308
▁nightma	-4309
▁mixed	-4310
▁october	-4311
▁dest	-4312
▁scene	-4313
▁lur	-4314
▁flash	-4315
▁credit	-4316
▁doesnt	-4317
asing	-4318
aaaaa	-4319
▁scare	-4320
who	-4321
▁miley	-4322
tery	-4323
▁badly	-4324
▁bite	-4325
please	-4326
▁ian	-4327
▁retweets	-4328
▁posting	-4329
▁bish	-4330
▁depressed	-4331
▁wth	-4332
▁wheel	-4333
▁prett	-4334
▁points	-4335
▁thots	-4336
▁bond	-4337
edy	-4338
▁craw	-4339
ized	-4340
odes	-4341
▁theres	-4342
▁goodness	-4343
▁diss	-4344
za	-4345
▁🐾	-4346
▁couch	-4347
▁shave	-4348
▁headphones	-4349
▁savage	-4350
aga	-4351
▁island	-4352
▁haw	-4353
ipe	-4354
▁germany	-4355
stop	-4356
▁grateful	-4357
▁compliment	-4358
▁empire	-4359
acy	-4360
kins	-4361
▁potato	-4362
▁afr	-4363
▁bub	-4364
▁rush	-4365
sen	-4366
acts	-4367
▁model	-4368
obe	-4369
▁prayers	-4370
▁bes	-4371
▁babys	-4372
▁typ	-4373
▁ant	-4374
▁return	-4375
▁race	-4376
▁sale	-4377
▁sunny	-4378
xx	-4379
▁disappointed	-4380
▁boots	-4381
▁carry	-4382
▁whet	-4383
▁ank	-4384
ument	-4385
▁ki	-4386
▁decision	-4387
▁spirit	-4388
mates	-4389
bit	-4390
ees	-4391
sss	-4392
▁faster	-4393
▁spain	-4394
isa	-4395
word	-4396
aming	-4397
▁ashley	-4398
eeeee	-4399
▁clue	-4400
▁slap	-4401
▁opening	-4402
cake	-4403
▁kissing	-4404
▁indeed	-4405
▁flaw	-4406
▁george	-4407
▁nik	-4408
▁grandpa	-4409
▁messing	-4410
▁swift	-4411
▁fart	-4412
fy	-4413
▁lightskin	-4414
▁aaron	-4415
▁heck	-4416
eb	-4417
▁pancakes	-4418
▁toile	-4419
▁boutta	-4420
▁junior	-4421
▁corn	-4422
ults	-4423
▁bestie	-4424
▁session	-4425
▁throwback	-4426
▁blan	-4427
elle	-4428
▁apolog	-4429
▁gho	-4430
issa	-4431
▁mini	-4432
▁ashton	-4433
aur	-4434
▁heels	-4435
▁xoxo	-4436
▁jour	-4437
▁comput	-4438
bert	-4439
▁packing	-4440
▁stat	-4441
iforn	-4442
hhh	-4443
▁extrem	-4444
▁probs	-4445
▁niece	-4446
▁youn	-4447
▁drugs	-4448
▁given	-4449
▁search	-4450
▁follower	-4451
▁locked	-4452
▁👰	-4453
▁fried	-4454
▁ages	-4455
▁loose	-4456
▁mans	-4457
▁🍔	-4458
ground	-4459
▁compet	-4460
▁depressing	-4461
▁📚	-4462
▁hole	-4463
▁scratch	-4464
▁constantly	-4465
"”	-4466
▁travel	-4467
▁goof	-4468
▁👪	-4469
▁mistake	-4470
uuuu	-4471
▁asks	-4472
▁orig	-4473
▁stressing	-4474
▁blessing	-4475
▁allerg	-4476
▁weave	-4477
▁dare	-4478
▁flying	-4479
▁diffic	-4480
bd	-4481
ni	-4482
▁californ	-4483
▁booked	-4484
▁driver	-4485
▁herself	-4486
▁mail	-4487
▁extremely	-4488
▁river	-4489
▁continue	-4490
▁twe	-4491
▁pierced	-4492
▁neighbors	-4493
▁beyonce	-4494
▁deff	-4495
▁moves	-4496
when	-4497
▁ult	-4498
▁spread	-4499
▁braces	-4500
▁cere	-4501
▁freakin	-4502
▁decent	-4503
▁worries	-4504
▁whoo	-4505
▁aka	-4506
▁stranger	-4507
▁💂	-4508
iction	-4509
▁haters	-4510
mist	-4511
mel	-4512
>$	-4513
▁randomly	-4514
hey	-4515
▁ghost	-4516
▁path	-4517
▁staring	-4518
▁walmart	-4519
▁lls	-4520
dr	-4521
▁stalk	-4522
>+	-4523
aded	-4524
ances	-4525
▁incl	-4526
dest	-4527
▁diet	-4528
▁val	-4529
▁hits	-4530
▁emotions	-4531
▁vines	-4532
hs	-4533
▁italy	-4534
ours	-4535
▁shirts	-4536
▁pure	-4537
▁license	-4538
▁speech	-4539
▁slip	-4540
▁heads	-4541
cast	-4542
▁charge	-4543
▁cutting	-4544
▁someday	-4545
▁anat	-4546
chu	-4547
play	-4548
mer	-4549
▁difficult	-4550
bie	-4551
oe	-4552
▁reaction	-4553
▁👠	-4554
▁heavy	-4555
▁exhausted	-4556
▁adam	-4557
▁noo	-4558
▁usa	-4559
▁fashion	-4560
▁police	-4561
cause	-4562
▁flowers	-4563
▁dent	-4564
▁tip	-4565
▁pin	-4566
▁mt	-4567
▁slowly	-4568
rid	-4569
▁finale	-4570
▁cards	-4571
▁recent	-4572
▁appoint	-4573
▁unreal	-4574
▁purp	-4575
▁moments	-4576
▁il	-4577
isha	-4578
icated	-4579
damn	-4580
▁presents	-4581
▁themselves	-4582
▁scott	-4583
▁pump	-4584
▁🍟	-4585
▁anatomy	-4586
▁counting	-4587
▁nomin	-4588
▁lrt	-4589
▁california	-4590
▁lee	-4591
▁cheek	-4592
field	-4593
ium	-4594
▁emily	-4595
▁effort	-4596
▁issu	-4597
▁lool	-4598
▁fixed	-4599
▁focus	-4600
▁creepy	-4601
▁wasnt	-4602
▁demi	-4603
▁hen	-4604
▁cuff	-4605
▁amber	-4606
▁natural	-4607
▁clown	-4608
▁laptop	-4609
▁kanye	-4610
▁cancelled	-4611
▁victoria	-4612
▁desper	-4613
▁gross	-4614
▁sile	-4615
▁yass	-4616
▁cheap	-4617
bitch	-4618
▁ath	-4619
athon	-4620
ief	-4621
ilt	-4622
▁tem	-4623
oooooo	-4624
▁ole	-4625
▁meat	-4626
▁numbers	-4627
▁👆	-4628
▁assign	-4629
▁""	-4630
▁nvm	-4631
▁eu	-4632
los	-4633
▁pops	-4634
▁calum	-4635
▁slut	-4636
▁rolling	-4637
30	-4638
▁nike	-4639
▁👄	-4640
▁thou	-4641
▁thang	-4642
▁opinion	-4643
▁girly	-4644
lems	-4645
▁starving	-4646
▁garden	-4647
▁dates	-4648
▁toilet	-4649
▁icon	-4650
▁santa	-4651
▁mothers	-4652
▁bros	-4653
▁bound	-4654
▁issues	-4655
▁speed	-4656
▁invited	-4657
▁shar	-4658
▁contact	-4659
▁describe	-4660
uk	-4661
yd	-4662
oll	-4663
▁stairs	-4664
▁manager	-4665
▁bug	-4666
▁appe	-4667
see	-4668
▁inspiration	-4669
iy	-4670
irect	-4671
▁lov	-4672
aine	-4673
school	-4674
▁upload	-4675
▁knocked	-4676
▁chase	-4677
▁dw	-4678
▁dollar	-4679
▁standing	-4680
mix	-4681
▁battle	-4682
orry	-4683
iger	-4684
▁🎃	-4685
chest	-4686
atic	-4687
▁trail	-4688
▁lesson	-4689
▁highlight	-4690
▁beth	-4691
▁chuck	-4692
▁retweeting	-4693
▁couples	-4694
▁sayin	-4695
▁dece	-4696
asting	-4697
▁trey	-4698
>)	-4699
▁tripping	-4700
stick	-4701
▁pitch	-4702
▁evil	-4703
▁libr	-4704
▁neighbor	-4705
▁fancy	-4706
▁blind	-4707
nam	-4708
▁mach	-4709
▁rih	-4710
bow	-4711
▁bust	-4712
▁basic	-4713
ners	-4714
▁thug	-4715
▁loool	-4716
▁nothin	-4717
idence	-4718
▁hasht	-4719
▁dollars	-4720
▁ou	-4721
▁paint	-4722
▁anna	-4723
▁united	-4724
▁pride	-4725
▁sig	-4726
▁spurs	-4727
▁pean	-4728
25	-4729
etic	-4730
▁imy	-4731
urt	-4732
▁checking	-4733
▁tumb	-4734
issy	-4735
▁iggy	-4736
▁prefer	-4737
▁abt	-4738
▁babysit	-4739
▁purple	-4740
▁carol	-4741
▁🍪	-4742
▁cab	-4743
aj	-4744
▁dum	-4745
▁private	-4746
▁stressful	-4747
oned	-4748
▁ears	-4749
▁jenn	-4750
stairs	-4751
▁liverpool	-4752
▁lesb	-4753
▁connect	-4754
▁asian	-4755
eks	-4756
▁cond	-4757
▁insane	-4758
▁laid	-4759
▁mari	-4760
▁roommate	-4761
▁kyle	-4762
▁brad	-4763
bers	-4764
▁gtf	-4765
▁prince	-4766
▁filled	-4767
▁charlie	-4768
etto	-4769
▁computer	-4770
▁swag	-4771
raw	-4772
▁letter	-4773
▁pit	-4774
ooooo	-4775
▁partner	-4776
▁np	-4777
▁austral	-4778
▁curl	-4779
▁slick	-4780
fin	-4781
▁agg	-4782
▁hou	-4783
▁accent	-4784
▁vol	-4785
▁freezing	-4786
▁taught	-4787
▁hung	-4788
▁thigh	-4789
▁understands	-4790
▁inn	-4791
▁cowboys	-4792
▁domin	-4793
▁sushi	-4794
▁appro	-4795
▁cc	-4796
▁empty	-4797
▁jacket	-4798
nes	-4799
▁fruit	-4800
▁shoulda	-4801
▁cracking	-4802
new	-4803
▁indirect	-4804
▁ut	-4805
▁tooth	-4806
▁atm	-4807
▁ignoring	-4808
▁pig	-4809
▁lived	-4810
▁raw	-4811
▁pm	-4812
▁•	-4813
▁beats	-4814
▁paris	-4815
▁burnt	-4816
▁toes	-4817
▁umm	-4818
ubby	-4819
🇮🇹	-4820
▁washing	-4821
▁💢	-4822
▁dow	-4823
▁artist	-4824
ury	-4825
▁complaining	-4826
len	-4827
▁named	-4828
ology	-4829
▁dunk	-4830
▁wins	-4831
▁univers	-4832
▁crash	-4833
▁wayne	-4834
▁wing	-4835
▁yr	-4836
▁xo	-4837
▁diam	-4838
▁shoe	-4839
▁bt	-4840
arter	-4841
▁eachother	-4842
▁mount	-4843
▁ga	-4844
illed	-4845
▁duck	-4846
unts	-4847
▁cole	-4848
fortun	-4849
▁friendly	-4850
lim	-4851
unity	-4852
▁precious	-4853
verse	-4854
▁asses	-4855
▁cheating	-4856
▁iv	-4857
tless	-4858
▁google	-4859
▁rft	-4860
▁xmas	-4861
bra	-4862
▁neither	-4863
▁une	-4864
▁retweeted	-4865
▁legg	-4866
▁nomore	-4867
roll	-4868
▁ach	-4869
squ	-4870
▁donuts	-4871
gery	-4872
▁holl	-4873
▁ku	-4874
▁cracked	-4875
▁lin	-4876
▁failed	-4877
oot	-4878
▁eggs	-4879
▁gri	-4880
▁👗	-4881
▁ahaha	-4882
▁smack	-4883
dies	-4884
▁lift	-4885
▁horse	-4886
▁greet	-4887
▁dunno	-4888
iii	-4889
vi	-4890
▁otp	-4891
▁asl	-4892
logy	-4893
▁girlfriends	-4894
▁lemon	-4895
▁salad	-4896
▁male	-4897
▁chan	-4898
▁brandon	-4899
▁sauce	-4900
ahahaha	-4901
▁graduating	-4902
▁dee	-4903
▁appreciated	-4904
▁possibly	-4905
▁rapp	-4906
they	-4907
ena	-4908
▁log	-4909
▁packed	-4910
▁ayy	-4911
▁pad	-4912
▁broo	-4913
▁beard	-4914
▁wah	-4915
▁becoming	-4916
▁wasted	-4917
▁gutted	-4918
ius	-4919
sters	-4920
▁gm	-4921
>/5	-4922
▁brush	-4923
eeee	-4924
▁tap	-4925
god	-4926
▁catfish	-4927
▁jaw	-4928
cation	-4929
iety	-4930
▁reunited	-4931
▁⛽	-4932
▁jackson	-4933
▁accep	-4934
▁code	-4935
aaay	-4936
▁cloud	-4937
▁patient	-4938
▁subs	-4939
wear	-4940
▁lolol	-4941
▁twerk	-4942
▁episodes	-4943
▁disgusting	-4944
ism	-4945
▁falls	-4946
▁mirror	-4947
▁⛅	-4948
▁unif	-4949
chester	-4950
▁science	-4951
▁jason	-4952
▁towards	-4953
▁ped	-4954
▁dye	-4955
▁strawberry	-4956
▁marathon	-4957
▁tear	-4958
▁yellow	-4959
▁usual	-4960
▁jap	-4961
▁drove	-4962
▁steak	-4963
▁medic	-4964
▁katy	-4965
▁joking	-4966
orting	-4967
▁regular	-4968
▁<<<<	-4969
▁gifts	-4970
icy	-4971
▁tank	-4972
vie	-4973
▁peanut	-4974
▁xbox	-4975
ko	-4976
▁unfollowed	-4977
▁nyc	-4978
▁surgery	-4979
▁besides	-4980
▁total	-4981
▁britt	-4982
▁unfortun	-4983
▁library	-4984
▁keys	-4985
ckey	-4986
▁🌷	-4987
▁notes	-4988
▁haircut	-4989
▁selling	-4990
▁added	-4991
▁animal	-4992
▁invol	-4993
▁gim	-4994
▁waff	-4995
▁rihanna	-4996
shirt	-4997
▁learning	-4998
▁coz	-4999
▁bik	-5000
lma	-5001
▁runs	-5002
▁dresses	-5003
▁changes	-5004
▁gra	-5005
▁peoples	-5006
▁horror	-5007
▁👣	-5008
lr	-5009
alk	-5010
mony	-5011
▁gurl	-5012
▁katie	-5013
▁lines	-5014
problems	-5015
▁pretend	-5016
▁massive	-5017
▁stalking	-5018
▁[	-5019
▁matters	-5020
▁🎥	-5021
▁forehead	-5022
▁pumped	-5023
▁bbq	-5024
▁appointment	-5025
▁tenn	-5026
▁diamond	-5027
▁forgetting	-5028
▁fireworks	-5029
▁nove	-5030
using	-5031
▁crossed	-5032
▁banana	-5033
▁comin	-5034
▁hehehe	-5035
▁request	-5036
▁htt	-5037
▁🌍	-5038
>>>	-5039
▁lied	-5040
▁owe	-5041
▁rum	-5042
▁rey	-5043
▁spoiled	-5044
▁survive	-5045
▁kayla	-5046
▁slee	-5047
asy	-5048
oid	-5049
▁houston	-5050
ored	-5051
isions	-5052
▁por	-5053
▁willi	-5054
▁foll	-5055
▁que	-5056
athan	-5057
▁mornings	-5058
mom	-5059
,,	-5060
appe	-5061
24	-5062
▁franc	-5063
era	-5064
▁sober	-5065
▁est	-5066
▁trade	-5067
▁irre	-5068
▁manage	-5069
▁dod	-5070
▁expecting	-5071
▁december	-5072
▁kitty	-5073
▁ooh	-5074
have	-5075
▁heading	-5076
zzy	-5077
▁aly	-5078
antic	-5079
▁cuss	-5080
▁wore	-5081
▁emma	-5082
▁💊	-5083
▁golden	-5084
▁tries	-5085
▁france	-5086
▁guard	-5087
▁madison	-5088
enter	-5089
▁jaz	-5090
▁arsen	-5091
▁zone	-5092
▁shooting	-5093
▁boat	-5094
ibes	-5095
alo	-5096
boo	-5097
▁stays	-5098
▁toe	-5099
loe	-5100
▁trippin	-5101
tte	-5102
▁competition	-5103
▁cops	-5104
▁🍗	-5105
ening	-5106
▁messy	-5107
ura	-5108
gth	-5109
olar	-5110
▁jane	-5111
▁delicious	-5112
▁ghetto	-5113
▁incredible	-5114
▁langu	-5115
▁cass	-5116
▁argent	-5117
▁november	-5118
▁trending	-5119
▁fails	-5120
▁🐷	-5121
▁vent	-5122
▁jobs	-5123
▁🌎	-5124
▁teams	-5125
▁clock	-5126
nor	-5127
▁covered	-5128
kes	-5129
▁quot	-5130
▁sug	-5131
▁goofy	-5132
▁checked	-5133
▁cancer	-5134
▁wana	-5135
▁winner	-5136
ika	-5137
nin	-5138
▁tn	-5139
▁👟	-5140
▁sees	-5141
cture	-5142
▁thre	-5143
▁sin	-5144
▁err	-5145
▁🍩	-5146
▁sil	-5147
▁ii	-5148
baby	-5149
▁sty	-5150
▁fed	-5151
▁wiz	-5152
▁rout	-5153
▁consist	-5154
▁nahh	-5155
▁delay	-5156
star	-5157
▁deadass	-5158
▁genu	-5159
▁pissing	-5160
▁crib	-5161
▁excite	-5162
▁copy	-5163
▁jose	-5164
▁!”	-5165
▁fandom	-5166
▁whoop	-5167
▁🔊	-5168
▁january	-5169
▁restaur	-5170
▁wre	-5171
aged	-5172
▁piercing	-5173
▁cheerle	-5174
▁quality	-5175
▁lick	-5176
▁dropping	-5177
awd	-5178
▁sab	-5179
▁pant	-5180
▁liars	-5181
▁realise	-5182
▁pillow	-5183
▁yan	-5184
▁dylan	-5185
▁dumbass	-5186
▁report	-5187
itties	-5188
▁nug	-5189
{}	-5190
▁fifa	-5191
▁stare	-5192
▁weakness	-5193
▁whether	-5194
▁kard	-5195
rets	-5196
▁arsenal	-5197
▁chop	-5198
▁hai	-5199
▁👬	-5200
▁fal	-5201
▁perfectly	-5202
▁beating	-5203
▁minds	-5204
▁bruhh	-5205
▁az	-5206
▁results	-5207
▁hashtag	-5208
▁shorty	-5209
▁hrs	-5210
aries	-5211
▁christian	-5212
▁esp	-5213
▁tacos	-5214
▁foo	-5215
▁🌾	-5216
▁grande	-5217
▁favs	-5218
23	-5219
▁foh	-5220
thony	-5221
▁iloveyou	-5222
▁meaning	-5223
▁yelling	-5224
ssss	-5225
ains	-5226
ilty	-5227
▁homies	-5228
40	-5229
▁🍓	-5230
▁cum	-5231
ends	-5232
▁contacts	-5233
▁ups	-5234
▁isnt	-5235
▁hockey	-5236
▁sigh	-5237
▁opened	-5238
▁nood	-5239
▁schools	-5240
▁hated	-5241
amon	-5242
ives	-5243
▁yoo	-5244
▁festival	-5245
▁syd	-5246
▁jos	-5247
▁remix	-5248
mistry	-5249
▁japan	-5250
▁younger	-5251
▁johnny	-5252
▁sarc	-5253
▁force	-5254
ify	-5255
though	-5256
▁hangover	-5257
▁🐯	-5258
▁lind	-5259
▁bump	-5260
▁cereal	-5261
▁iw	-5262
▁decisions	-5263
▁tam	-5264
▁battery	-5265
imate	-5266
▁signed	-5267
▁nuts	-5268
▁slight	-5269
▁reunion	-5270
▁shine	-5271
▁terri	-5272
▁soup	-5273
▁stream	-5274
▁above	-5275
▁andrew	-5276
▁belong	-5277
▁horny	-5278
▁fi	-5279
▁iss	-5280
rel	-5281
▁disc	-5282
▁ib	-5283
▁devil	-5284
▁tons	-5285
▁fever	-5286
▁loveyou	-5287
▁🎆	-5288
▁bg	-5289
▁kardash	-5290
▁bean	-5291
▁mont	-5292
ysm	-5293
▁rh	-5294
▁followme	-5295
▁oce	-5296
▁figured	-5297
▁cunt	-5298
▁bars	-5299
▁georg	-5300
▁brace	-5301
▁tfios	-5302
▁master	-5303
▁laund	-5304
▁tumblr	-5305
▁drank	-5306
▁drug	-5307
▁ded	-5308
▁chicks	-5309
▁headed	-5310
▁iron	-5311
▁shel	-5312
▁bryan	-5313
▁release	-5314
▁forgive	-5315
allah	-5316
▁background	-5317
▁🍂	-5318
▁curry	-5319
▁chemistry	-5320
▁fully	-5321
aches	-5322
▁convin	-5323
▁lover	-5324
▁bee	-5325
▁✂	-5326
uch	-5327
▁dies	-5328
▁interested	-5329
▁pow	-5330
▁accounts	-5331
▁beck	-5332
bin	-5333
▁accom	-5334
▁comfy	-5335
▁classic	-5336
▁argentina	-5337
▁caring	-5338
▁guilty	-5339
▁answers	-5340
▁host	-5341
▁character	-5342
▁buzz	-5343
▁div	-5344
▁sour	-5345
▁spit	-5346
21	-5347
▁fifth	-5348
▁solid	-5349
▁imm	-5350
▁vamps	-5351
▁ignored	-5352
aya	-5353
””	-5354
▁makin	-5355
▁eaten	-5356
▁somehow	-5357
▁beast	-5358
▁🌙	-5359
log	-5360
▁idek	-5361
26	-5362
ires	-5363
▁ef	-5364
▁cody	-5365
▁freaky	-5366
▁tiny	-5367
▁cig	-5368
▁autom	-5369
▁within	-5370
onda	-5371
dad	-5372
▁anxiety	-5373
▁webs	-5374
sie	-5375
▁mode	-5376
▁pocket	-5377
▁trick	-5378
▁closet	-5379
break	-5380
icans	-5381
ister	-5382
▁nae	-5383
▁vod	-5384
▁subway	-5385
▁doctors	-5386
▁ted	-5387
▁lag	-5388
▁flawless	-5389
inger	-5390
▁blew	-5391
▁boom	-5392
▁sean	-5393
▁password	-5394
▁planet	-5395
ivity	-5396
▁quickly	-5397
▁nugget	-5398
▁🆗	-5399
▁refu	-5400
ubs	-5401
▁stunning	-5402
▁prepared	-5403
▁🐢	-5404
ility	-5405
▁liqu	-5406
ksh	-5407
▁comments	-5408
▁writ	-5409
kn	-5410
▁witch	-5411
▁lhh	-5412
▁agre	-5413
▁laundry	-5414
▁bass	-5415
nb	-5416
▁loss	-5417
▁posts	-5418
▁yummy	-5419
ju	-5420
▁bags	-5421
yeah	-5422
▁bis	-5423
▁pieces	-5424
▁🐻	-5425
▁moo	-5426
▁building	-5427
ira	-5428
▁nicole	-5429
▁dave	-5430
▁coke	-5431
▁vamp	-5432
itar	-5433
clock	-5434
▁eag	-5435
▁dentist	-5436
omg	-5437
?.	-5438
ray	-5439
▁eyel	-5440
▁❌	-5441
▁nam	-5442
▁rings	-5443
▁program	-5444
▁papa	-5445
▁bron	-5446
▁tips	-5447
▁shoulder	-5448
some	-5449
▁selena	-5450
▁elect	-5451
▁flu	-5452
wise	-5453
▁simp	-5454
▁madrid	-5455
▁expl	-5456
house	-5457
▁equ	-5458
▁“@	-5459
win	-5460
▁perry	-5461
▁haa	-5462
▁bast	-5463
cs	-5464
▁mission	-5465
▁memory	-5466
fied	-5467
haha	-5468
▁sadly	-5469
▁🚫	-5470
ssa	-5471
▁shr	-5472
▁professor	-5473
▁tony	-5474
nty	-5475
▁sheer	-5476
▁portug	-5477
athers	-5478
▁passing	-5479
▁rare	-5480
▁golf	-5481
▁@...	-5482
yn	-5483
sha	-5484
ousand	-5485
▁pleasee	-5486
▁sport	-5487
▁language	-5488
▁oli	-5489
▁lah	-5490
▁jimmy	-5491
vert	-5492
▁hart	-5493
▁ber	-5494
▁offer	-5495
▁quiz	-5496
ata	-5497
▁oooo	-5498
▁common	-5499
▁loser	-5500
▁🍭	-5501
▁thinkin	-5502
bro	-5503
▁chief	-5504
▁disneyland	-5505
▁champion	-5506
ru	-5507
▁refuse	-5508
▁premi	-5509
▁atte	-5510
▁welp	-5511
▁yaaa	-5512
▁area	-5513
▁andre	-5514
▁jelly	-5515
▁—	-5516
▁mixt	-5517
▁kelly	-5518
▁nightmare	-5519
made	-5520
▁turtle	-5521
▁faithful	-5522
▁wisdom	-5523
▁manchester	-5524
27	-5525
▁🐰	-5526
▁kicking	-5527
▁avail	-5528
▁curly	-5529
▁personality	-5530
ste	-5531
▁thousand	-5532
▁flirt	-5533
bby	-5534
▁borrow	-5535
▁potter	-5536
▁pine	-5537
shop	-5538
▁tommor	-5539
▁purpose	-5540
omore	-5541
▁captain	-5542
▁desperate	-5543
▁windows	-5544
▁original	-5545
▁downt	-5546
▁load	-5547
▁considering	-5548
▁fri	-5549
got	-5550
▁roast	-5551
▁review	-5552
lmao	-5553
▁mann	-5554
ached	-5555
>:	-5556
▁🐘	-5557
▁megan	-5558
▁unfortunately	-5559
giving	-5560
▁au	-5561
▁epic	-5562
▁rts	-5563
▁greys	-5564
▁suggest	-5565
▁👵	-5566
▁concer	-5567
▁morgan	-5568
▁tub	-5569
hered	-5570
▁trailer	-5571
ified	-5572
rup	-5573
gal	-5574
▁bm	-5575
every	-5576
▁vibes	-5577
uses	-5578
▁adore	-5579
▁inlove	-5580
▁pisses	-5581
▁rod	-5582
▁afford	-5583
▁sike	-5584
▁skills	-5585
▁chin	-5586
▁helped	-5587
▁settle	-5588
▁obsession	-5589
▁baes	-5590
▁pounds	-5591
▁irritating	-5592
zzing	-5593
▁pt	-5594
▁lam	-5595
▁productive	-5596
▁nin	-5597
▁pulling	-5598
▁plenty	-5599
▁ankle	-5600
ums	-5601
cials	-5602
▁mult	-5603
▁woulda	-5604
▁luh	-5605
▁became	-5606
▁guitar	-5607
▁expected	-5608
▁careful	-5609
▁sends	-5610
berries	-5611
▁ris	-5612
>/4	-5613
▁ignor	-5614
▁mums	-5615
▁grace	-5616
▁distance	-5617
▁animals	-5618
▁toast	-5619
▁whis	-5620
▁lana	-5621
▁bachel	-5622
▁hoodie	-5623
▁🚘	-5624
▁gig	-5625
▁^^	-5626
bet	-5627
iring	-5628
▁jessica	-5629
ota	-5630
▁medicine	-5631
▁eric	-5632
ckets	-5633
▁ng	-5634
uggle	-5635
▁drag	-5636
▁tie	-5637
▁ikr	-5638
▁."	-5639
▁cinn	-5640
▁australia	-5641
▁cha	-5642
▁europe	-5643
▁helps	-5644
▁stripp	-5645
▁chair	-5646
una	-5647
▁trop	-5648
▁prove	-5649
▁quarter	-5650
▁tend	-5651
unes	-5652
▁target	-5653
ette	-5654
lanta	-5655
llo	-5656
▁babygirl	-5657
▁irrele	-5658
▁<<<	-5659
▁unex	-5660
▁negative	-5661
▁ic	-5662
▁ther	-5663
▁hbd	-5664
▁realizing	-5665
▁danny	-5666
▁dor	-5667
▁excitement	-5668
▁odd	-5669
▁cuddles	-5670
▁jumping	-5671
sec	-5672
lest	-5673
▁replying	-5674
▁birds	-5675
▁alike	-5676
▁chil	-5677
▁sens	-5678
old	-5679
▁apply	-5680
liest	-5681
▁sass	-5682
▁reck	-5683
▁dough	-5684
▁relaxing	-5685
▁ras	-5686
▁inj	-5687
▁lesbian	-5688
▁burning	-5689
▁rat	-5690
▁❓	-5691
▁dish	-5692
▁amen	-5693
▁passion	-5694
▁martin	-5695
▁gimme	-5696
▁minaj	-5697
js	-5698
▁canada	-5699
▁meh	-5700
▁pathetic	-5701
▁somethin	-5702
cour	-5703
▁michelle	-5704
cam	-5705
▁bubble	-5706
ost	-5707
▁blake	-5708
▁cinnamon	-5709
▁likely	-5710
bruary	-5711
▁university	-5712
▁rent	-5713
▁lecture	-5714
ference	-5715
igan	-5716
rop	-5717
▁karma	-5718
▁@?	-5719
▁whore	-5720
▁💧	-5721
▁fuu	-5722
stem	-5723
▁definition	-5724
▁sophomore	-5725
▁transform	-5726
▁bobby	-5727
▁favoriting	-5728
▁titties	-5729
▁machine	-5730
▁colomb	-5731
▁students	-5732
▁gn	-5733
cell	-5734
▁💇	-5735
▁misses	-5736
mill	-5737
ifer	-5738
▁musical	-5739
▁ocean	-5740
ett	-5741
▁steve	-5742
▁replace	-5743
▁commit	-5744
▁irrelevant	-5745
▁buzzing	-5746
▁career	-5747
irting	-5748
▁🐝	-5749
▁kris	-5750
▁amaz	-5751
uel	-5752
▁🏡	-5753
▁anthony	-5754
▁jeep	-5755
▁italian	-5756
▁disrespectful	-5757
▁playoff	-5758
tage	-5759
▁popping	-5760
▁⭐	-5761
▁suff	-5762
▁february	-5763
▁website	-5764
▁active	-5765
▁fucken	-5766
▁shade	-5767
▁leggings	-5768
▁bd	-5769
▁available	-5770
▁successful	-5771
▁journey	-5772
▁awww	-5773
cuss	-5774
▁comeback	-5775
▁sea	-5776
▁painful	-5777
▁rang	-5778
belie	-5779
▁ihop	-5780
▁va	-5781
▁kel	-5782
▁ideas	-5783
▁shape	-5784
▁👩	-5785
▁contest	-5786
corn	-5787
aching	-5788
aint	-5789
▁thanksgiving	-5790
▁killin	-5791
▁foreal	-5792
omet	-5793
▁aj	-5794
▁draft	-5795
▁fools	-5796
▁blanket	-5797
▁atlanta	-5798
ban	-5799
▁vid	-5800
▁tanning	-5801
▁http	-5802
▁tryin	-5803
▁bak	-5804
atl	-5805
▁irritated	-5806
▁action	-5807
▁restaurant	-5808
▁hiding	-5809
▁vodka	-5810
▁punk	-5811
▁endless	-5812
▁sheeran	-5813
▁melt	-5814
29	-5815
friends	-5816
▁sib	-5817
▁skype	-5818
resh	-5819
ished	-5820
▁oit	-5821
▁attend	-5822
▁rachel	-5823
▁yoga	-5824
▁streets	-5825
▁groc	-5826
▁georgia	-5827
▁thom	-5828
▁mental	-5829
▁onto	-5830
▁lipstick	-5831
▁zach	-5832
▁kylie	-5833
ashes	-5834
▁yee	-5835
▁lane	-5836
▁srs	-5837
▁mosqu	-5838
▁lads	-5839
stal	-5840
▁system	-5841
▁thn	-5842
onse	-5843
▁tut	-5844
▁witness	-5845
▁hardly	-5846
▁dislike	-5847
▁tournam	-5848
born	-5849
▁ouch	-5850
▁childhood	-5851
pected	-5852
▁rolls	-5853
▁jr	-5854
▁jere	-5855
▁info	-5856
▁downtown	-5857
allow	-5858
▁joey	-5859
▁chu	-5860
▁intr	-5861
fun	-5862
▁satis	-5863
ured	-5864
ji	-5865
▁although	-5866
▁poppin	-5867
▁section	-5868
▁romantic	-5869
ece	-5870
▁convinced	-5871
▁🍉	-5872
▁coast	-5873
aaah	-5874
▁oitnb	-5875
rey	-5876
han	-5877
▁effect	-5878
▁las	-5879
▁killer	-5880
aww	-5881
▁philly	-5882
andy	-5883
bae	-5884
▁chew	-5885
▁walks	-5886
▁flav	-5887
▁legal	-5888
▁knees	-5889
▁emotion	-5890
▁voted	-5891
▁bras	-5892
▁grant	-5893
▁whatsapp	-5894
▁highschool	-5895
thew	-5896
gged	-5897
▁edu	-5898
▁"”	-5899
▁sher	-5900
uring	-5901
▁uniform	-5902
▁hal	-5903
▁ale	-5904
▁includ	-5905
▁pepper	-5906
urity	-5907
gie	-5908
▁blog	-5909
▁esc	-5910
▁granny	-5911
▁drew	-5912
▁kings	-5913
▁talented	-5914
awks	-5915
▁auntie	-5916
▁recogn	-5917
town	-5918
▁plate	-5919
watch	-5920
▁inform	-5921
▁click	-5922
thin	-5923
▁yum	-5924
zer	-5925
▁limit	-5926
>/2	-5927
▁sweater	-5928
▁anger	-5929
▁flirting	-5930
▁cooked	-5931
▁ebola	-5932
▁yard	-5933
▁disco	-5934
essa	-5935
▁role	-5936
▁jumped	-5937
cci	-5938
▁?"	-5939
▁ti	-5940
did	-5941
▁fridge	-5942
▁treated	-5943
▁nan	-5944
▁hahahahah	-5945
▁ts	-5946
▁maria	-5947
aly	-5948
▁plot	-5949
▁response	-5950
▁via	-5951
▁boi	-5952
▁simply	-5953
▁destr	-5954
▁studio	-5955
▁munch	-5956
▁osc	-5957
▁uhh	-5958
▁chile	-5959
▁ugg	-5960
▁hii	-5961
▁india	-5962
▁weirdest	-5963
▁design	-5964
▁turkey	-5965
▁looool	-5966
iza	-5967
▁cramps	-5968
▁sang	-5969
▁retard	-5970
▁sooner	-5971
▁tick	-5972
▁relie	-5973
▁🎸	-5974
▁mash	-5975
▁bunny	-5976
▁connor	-5977
▁moe	-5978
▁ohio	-5979
▁waist	-5980
otha	-5981
ttt	-5982
atically	-5983
astin	-5984
▁wid	-5985
▁amy	-5986
▁wend	-5987
▁height	-5988
▁gent	-5989
▁term	-5990
▁general	-5991
▁reminded	-5992
omm	-5993
ae	-5994
▁tbt	-5995
▁sissy	-5996
🇫🇷	-5997
▁panties	-5998
chat	-5999
▁strange	-6000
▁spin	-6001
▁bod	-6002
▁miser	-6003
ige	-6004
▁chees	-6005
ational	-6006
▁cope	-6007
▁laught	-6008
inge	-6009
▁discuss	-6010
▁roy	-6011
iling	-6012
▁craz	-6013
▁wise	-6014
▁pc	-6015
▁deg	-6016
▁center	-6017
▁whit	-6018
fs	-6019
▁rese	-6020
icle	-6021
▁listened	-6022
▁scored	-6023
di	-6024
▁cale	-6025
▁smiles	-6026
▁army	-6027
▁fourth	-6028
week	-6029
▁lak	-6030
▁crowd	-6031
▁underwear	-6032
▁nicest	-6033
▁cau	-6034
cos	-6035
▁tab	-6036
nigg	-6037
▁havin	-6038
▁brazilian	-6039
▁grew	-6040
▁argument	-6041
▁dc	-6042
▁mw	-6043
▁realised	-6044
▁pope	-6045
▁wrap	-6046
aced	-6047
aham	-6048
▁nba	-6049
▁cd	-6050
▁naps	-6051
▁pour	-6052
▁cheerlead	-6053
▁wack	-6054
▁liz	-6055
▁pills	-6056
▁snacks	-6057
outs	-6058
▁unexpected	-6059
▁vibe	-6060
draw	-6061
▁noise	-6062
▁harmony	-6063
▁ross	-6064
jk	-6065
ining	-6066
▁sibling	-6067
loo	-6068
icing	-6069
▁favorited	-6070
▁saf	-6071
▁kl	-6072
▁bills	-6073
ups	-6074
sed	-6075
▁kate	-6076
28	-6077
▁bald	-6078
aging	-6079
▁lean	-6080
▁dreaming	-6081
bless	-6082
▁touched	-6083
▁dorm	-6084
▁ronald	-6085
▁ml	-6086
▁genuin	-6087
ety	-6088
▁typical	-6089
▁spong	-6090
▁zoo	-6091
angirl	-6092
▁fer	-6093
▁data	-6094
▁sunbur	-6095
▁hemm	-6096
▁🍍	-6097
▁srsly	-6098
▁sucked	-6099
▁susp	-6100
▁commercials	-6101
may	-6102
▁aswell	-6103
▁sake	-6104
▁costume	-6105
▁amanda	-6106
▁crim	-6107
▁whose	-6108
▁itunes	-6109
▁pointless	-6110
yo	-6111
▁ahahah	-6112
▁fwm	-6113
▁received	-6114
▁brun	-6115
▁debating	-6116
▁ina	-6117
▁badass	-6118
▁zac	-6119
say	-6120
▁monkey	-6121
▁naught	-6122
▁edit	-6123
▁raven	-6124
▁dirt	-6125
▁gum	-6126
▁wrest	-6127
crastin	-6128
▁defo	-6129
▁tits	-6130
cho	-6131
▁danger	-6132
▁replied	-6133
▁dv	-6134
▁cuh	-6135
▁spa	-6136
omfort	-6137
iggle	-6138
▁jamie	-6139
▁sonic	-6140
fan	-6141
ledge	-6142
▁playlist	-6143
▁👨	-6144
▁arrived	-6145
▁chose	-6146
▁genuinely	-6147
▁address	-6148
▁thighs	-6149
weather	-6150
▁priceless	-6151
▁salt	-6152
▁zero	-6153
▁fagg	-6154
icia	-6155
▁loooooo	-6156
▁entertaining	-6157
cel	-6158
▁supporting	-6159
ching	-6160
dles	-6161
▁mentioned	-6162
▁niggah	-6163
▁cheet	-6164
▁gah	-6165
aaaay	-6166
▁hav	-6167
fm	-6168
▁ipad	-6169
▁maths	-6170
▁krist	-6171
▁surely	-6172
▁kent	-6173
▁jeff	-6174
▁📖	-6175
▁wallet	-6176
▁brownies	-6177
ali	-6178
▁photograp	-6179
▁indian	-6180
▁faves	-6181
▁cav	-6182
▁square	-6183
▁suddenly	-6184
gover	-6185
bir	-6186
▁pineapp	-6187
▁status	-6188
▁keeper	-6189
round	-6190
▁ire	-6191
▁procrastin	-6192
▁fox	-6193
▁leo	-6194
▁cowork	-6195
oma	-6196
▁tg	-6197
lot	-6198
▁disappe	-6199
▁mh	-6200
▁rome	-6201
▁celebrating	-6202
▁deserved	-6203
▁warri	-6204
▁pimp	-6205
▁📷	-6206
wel	-6207
▁🍌	-6208
▁kr	-6209
fest	-6210
▁🐧	-6211
ators	-6212
▁stab	-6213
▁torn	-6214
▁recently	-6215
probs	-6216
▁pages	-6217
▁thrones	-6218
▁marsh	-6219
▁shi	-6220
▁agreed	-6221
▁ish	-6222
▁ughh	-6223
▁condition	-6224
▁graduated	-6225
▁setting	-6226
▁murder	-6227
▁ker	-6228
▁announce	-6229
▁strip	-6230
▁hemmings	-6231
▁jasm	-6232
▁sucking	-6233
▁kissed	-6234
pes	-6235
▁prank	-6236
▁accepted	-6237
jah	-6238
thday	-6239
▁cheated	-6240
▁cancel	-6241
adays	-6242
▁popcorn	-6243
▁fights	-6244
▁pumpkin	-6245
rek	-6246
▁hopes	-6247
▁pak	-6248
▁vampire	-6249
▁treating	-6250
▁sight	-6251
▁ally	-6252
▁tummy	-6253
▁proof	-6254
▁ven	-6255
▁rlly	-6256
▁robin	-6257
▁boston	-6258
▁uu	-6259
▁adri	-6260
▁yh	-6261
▁sel	-6262
▁darks	-6263
▁jet	-6264
▁types	-6265
▁fort	-6266
▁bree	-6267
▁beside	-6268
▁📱	-6269
▁yung	-6270
▁alexis	-6271
▁involved	-6272
▁attached	-6273
▁tournament	-6274
▁position	-6275
▁williams	-6276
▁edc	-6277
▁applic	-6278
▁cheeks	-6279
wait	-6280
attered	-6281
▁coolest	-6282
mes	-6283
▁occ	-6284
▁bake	-6285
▁destroy	-6286
add	-6287
▁stealing	-6288
▁spray	-6289
cakes	-6290
▁mixtape	-6291
▁cher	-6292
▁colour	-6293
▁accompl	-6294
▁allergies	-6295
>#	-6296
cer	-6297
▁hacked	-6298
▁jennifer	-6299
▁grandp	-6300
ierra	-6301
▁nowadays	-6302
▁jama	-6303
iders	-6304
▁od	-6305
▁pressure	-6306
▁excell	-6307
▁hunter	-6308
▁struggling	-6309
▁stret	-6310
▁hungover	-6311
▁monster	-6312
▁process	-6313
▁sexual	-6314
▁oooh	-6315
▁colors	-6316
//	-6317
tail	-6318
▁fet	-6319
▁destiny	-6320
▁swing	-6321
fact	-6322
▁tune	-6323
▁answering	-6324
▁regard	-6325
▁automatically	-6326
▁furious	-6327
▁teaching	-6328
▁unbelie	-6329
▁nak	-6330
▁russ	-6331
▁ali	-6332
▁uncomfort	-6333
▁tiff	-6334
▁trivia	-6335
▁option	-6336
▁saus	-6337
▁rocking	-6338
▁peter	-6339
▁🔒	-6340
▁kore	-6341
▁scand	-6342
▁naughty	-6343
▁motherfuck	-6344
▁bleed	-6345
▁worlds	-6346
!.	-6347
▁stren	-6348
▁hugg	-6349
▁begins	-6350
▁nite	-6351
▁dut	-6352
▁protect	-6353
mind	-6354
▁upon	-6355
▁stone	-6356
▁imagin	-6357
▁nipp	-6358
▁ricky	-6359
▁managed	-6360
cings	-6361
▁yelled	-6362
▁rot	-6363
▁wave	-6364
▁!?	-6365
▁strawberries	-6366
▁wakes	-6367
▁atl	-6368
▁xxx	-6369
▁tests	-6370
▁omgg	-6371
hope	-6372
▁birthdays	-6373
>"@:	-6374
▁organ	-6375
▁dammit	-6376
▁confir	-6377
▁molly	-6378
▁introdu	-6379
ummer	-6380
▁bih	-6381
▁💌	-6382
▁bitter	-6383
▁apologize	-6384
▁waited	-6385
ih	-6386
ened	-6387
▁guessing	-6388
▁unbeliev	-6389
vest	-6390
▁affect	-6391
▁steven	-6392
ima	-6393
▁nip	-6394
▁hawa	-6395
▁blessings	-6396
▁innoc	-6397
▁mentally	-6398
▁shock	-6399
ther	-6400
name	-6401
▁uncomfortable	-6402
▁miserable	-6403
▁hayes	-6404
▁philipp	-6405
▁lion	-6406
▁lovin	-6407
▁kobe	-6408
▁burrit	-6409
▁president	-6410
▁corny	-6411
▁doc	-6412
▁nw	-6413
▁liquor	-6414
▁coco	-6415
zel	-6416
▁outfits	-6417
▁bella	-6418
▁mimi	-6419
lies	-6420
▁mostly	-6421
▁poop	-6422
▁piercings	-6423
▁cruise	-6424
▁$20	-6425
▁portugal	-6426
▁kam	-6427
ency	-6428
▁voting	-6429
▁classy	-6430
▁gucci	-6431
▁drow	-6432
▁lbs	-6433
▁tape	-6434
▁degree	-6435
▁tommorow	-6436
cessary	-6437
▁circle	-6438
▁👇	-6439
▁chloe	-6440
▁prison	-6441
▁strength	-6442
bee	-6443
▁advance	-6444
▁assume	-6445
▁habit	-6446
▁title	-6447
▁couldnt	-6448
▁laughter	-6449
check	-6450
▁mob	-6451
▁cliff	-6452
▁shaking	-6453
▁alyssa	-6454
▁washed	-6455
bor	-6456
▁rules	-6457
▁buck	-6458
pic	-6459
▁bothered	-6460
▁drivers	-6461
▁tee	-6462
▁eventually	-6463
bal	-6464
▁deleting	-6465
zo	-6466
🇬🇧	-6467
mfa	-6468
acle	-6469
▁nc	-6470
▁fired	-6471
▁jasmine	-6472
hoo	-6473
▁bailey	-6474
▁withdraw	-6475
▁revision	-6476
▁wut	-6477
22	-6478
▁stink	-6479
▁stronger	-6480
ias	-6481
ender	-6482
▁deliver	-6483
dog	-6484
▁pra	-6485
ashing	-6486
▁laughs	-6487
▁dust	-6488
▁ripped	-6489
ando	-6490
▁smoked	-6491
val	-6492
▁hawaii	-6493
▁core	-6494
▁patience	-6495
arts	-6496
▁broad	-6497
▁remo	-6498
cles	-6499
▁bites	-6500
mys	-6501
anic	-6502
cas	-6503
▁chem	-6504
▁transfer	-6505
▁honor	-6506
▁snee	-6507
▁itself	-6508
▁compare	-6509
▁vag	-6510
▁central	-6511
▁compared	-6512
▁andy	-6513
awn	-6514
▁opport	-6515
▁gd	-6516
▁rapper	-6517
ua	-6518
▁bands	-6519
▁weeknd	-6520
▁👹	-6521
▁cheesecake	-6522
▁physics	-6523
alest	-6524
emi	-6525
▁🐬	-6526
▁large	-6527
▁jc	-6528
▁prettiest	-6529
▁bucks	-6530
▁sayang	-6531
▁chances	-6532
▁🐣	-6533
▁fleek	-6534
▁chapter	-6535
▁busted	-6536
▁signing	-6537
▁willing	-6538
▁brave	-6539
▁county	-6540
▁excellent	-6541
▁print	-6542
▁rate	-6543
▁finishing	-6544
▁ami	-6545
▁lhhatl	-6546
vide	-6547
▁junk	-6548
▁seats	-6549
▁meg	-6550
pers	-6551
▁🚨	-6552
▁zo	-6553
▁african	-6554
▁appear	-6555
▁respons	-6556
them	-6557
▁bedroom	-6558
▁🌼	-6559
▁lolo	-6560
▁brian	-6561
there	-6562
▁stub	-6563
▁hotter	-6564
fh	-6565
▁🐍	-6566
nce	-6567
▁zomb	-6568
▁bench	-6569
▁baa	-6570
▁fangirl	-6571
▁lor	-6572
eral	-6573
▁boob	-6574
▁cine	-6575
▁convos	-6576
▁oppos	-6577
▁accord	-6578
▁facial	-6579
▁brah	-6580
rav	-6581
▁huhu	-6582
▁slim	-6583
▁screenshots	-6584
fire	-6585
▁🎼	-6586
▁🚬	-6587
▁milksh	-6588
iano	-6589
ails	-6590
▁etc	-6591
▁site	-6592
▁sheets	-6593
▁sesh	-6594
▁hooked	-6595
▁bestest	-6596
vo	-6597
▁distract	-6598
▁snoring	-6599
▁chats	-6600
▁patri	-6601
▁📝	-6602
wered	-6603
▁ana	-6604
▁mondays	-6605
vey	-6606
▁lucy	-6607
▁cris	-6608
▁twerking	-6609
eps	-6610
▁theme	-6611
▁popped	-6612
▁matching	-6613
▁gotchu	-6614
▁stunt	-6615
▁drives	-6616
jam	-6617
▁nipples	-6618
▁gawd	-6619
▁🚀	-6620
▁fishing	-6621
▁fellow	-6622
▁kk	-6623
eng	-6624
▁refer	-6625
▁royal	-6626
▁recomm	-6627
▁vall	-6628
▁rule	-6629
▁bip	-6630
▁cleaned	-6631
ippers	-6632
▁stock	-6633
▁lurking	-6634
▁calc	-6635
▁sundays	-6636
▁topic	-6637
mond	-6638
▁rs	-6639
▁yal	-6640
▁embarrassed	-6641
▁reall	-6642
▁🍝	-6643
▁midter	-6644
▁drops	-6645
▁begging	-6646
▁tatted	-6647
arents	-6648
ained	-6649
uming	-6650
▁compliments	-6651
▁suits	-6652
▁mountain	-6653
▁df	-6654
▁bottles	-6655
▁buffalo	-6656
▁rainy	-6657
▁wendy	-6658
▁ahah	-6659
▁>>>>>	-6660
▁juss	-6661
▁tennis	-6662
lets	-6663
▁crab	-6664
ayy	-6665
▁ditch	-6666
▁intense	-6667
▁browns	-6668
▁jh	-6669
▁jenner	-6670
▁gil	-6671
▁stevie	-6672
▁hoop	-6673
order	-6674
▁woken	-6675
pack	-6676
▁screwed	-6677
▁gif	-6678
▁tunes	-6679
▁silent	-6680
▁content	-6681
▁forgotten	-6682
▁noodles	-6683
▁&'	-6684
same	-6685
▁countdown	-6686
▁mistakes	-6687
▁dh	-6688
▁mater	-6689
▁split	-6690
▁🐼	-6691
▁flappy	-6692
▁subscri	-6693
▁goat	-6694
▁brook	-6695
▁visiting	-6696
▁innocent	-6697
▁downstairs	-6698
asses	-6699
riage	-6700
▁loyalty	-6701
▁doo	-6702
▁rocks	-6703
▁digg	-6704
▁ahs	-6705
▁kak	-6706
▁perks	-6707
▁marks	-6708
▁hahahahahah	-6709
▁rp	-6710
▁taller	-6711
▁🏄	-6712
▁alf	-6713
▁swoll	-6714
▁sus	-6715
▁smoothie	-6716
▁hous	-6717
▁hint	-6718
▁papers	-6719
ippin	-6720
▁(@	-6721
▁shay	-6722
▁arrest	-6723
▁hihi	-6724
▁js	-6725
▁addiction	-6726
▁🚙	-6727
▁facet	-6728
▁als	-6729
▁properly	-6730
▁ignorant	-6731
fair	-6732
▁kal	-6733
▁performing	-6734
▁×	-6735
▁diego	-6736
▁confidence	-6737
▁dealing	-6738
▁frustrated	-6739
▁parts	-6740
▁hee	-6741
▁stoked	-6742
ebob	-6743
▁assignment	-6744
▁🐠	-6745
▁malik	-6746
▁tagged	-6747
spree	-6748
▁lessons	-6749
pre	-6750
▁states	-6751
▁oil	-6752
▁issue	-6753
▁seattle	-6754
▁flags	-6755
▁aid	-6756
ros	-6757
▁philippines	-6758
▁keef	-6759
▁generation	-6760
▁🙎	-6761
rell	-6762
▁angels	-6763
▁🌝	-6764
▁bone	-6765
▁nar	-6766
▁stops	-6767
▁wifey	-6768
▁foreign	-6769
35	-6770
▁nathan	-6771
ffin	-6772
▁subtweeting	-6773
▁mk	-6774
▁jar	-6775
▁refresh	-6776
▁flag	-6777
asha	-6778
▁british	-6779
ati	-6780
▁hs	-6781
▁spark	-6782
lands	-6783
▁threat	-6784
▁andro	-6785
▁drawing	-6786
▁purse	-6787
▁bipolar	-6788
oin	-6789
rus	-6790
▁voc	-6791
zie	-6792
▁johnson	-6793
▁dressing	-6794
ela	-6795
▁seah	-6796
▁confident	-6797
▁oomfs	-6798
▁touching	-6799
tern	-6800
▁fucker	-6801
▁bein	-6802
tch	-6803
▁jas	-6804
▁giant	-6805
▁iont	-6806
▁otherwise	-6807
▁jones	-6808
▁blah	-6809
hrs	-6810
▁kicks	-6811
▁therap	-6812
grade	-6813
▁distur	-6814
▁retur	-6815
▁babysitting	-6816
▁kitten	-6817
▁mb	-6818
▁related	-6819
car	-6820
45	-6821
sex	-6822
60	-6823
▁ginger	-6824
▁spec	-6825
part	-6826
▁camping	-6827
▁frick	-6828
aren	-6829
▁rema	-6830
▁according	-6831
tim	-6832
▁kardashian	-6833
▁spongebob	-6834
▁brooke	-6835
rip	-6836
▁confusing	-6837
▁whoa	-6838
iyah	-6839
▁gw	-6840
▁hollywood	-6841
ingy	-6842
▁sac	-6843
▁costa	-6844
▁purch	-6845
▁pers	-6846
inder	-6847
▁comedy	-6848
while	-6849
▁fantasy	-6850
▁updated	-6851
▁shocked	-6852
▁👳	-6853
▁rides	-6854
bes	-6855
37	-6856
▁raise	-6857
▁soci	-6858
▁yell	-6859
▁prior	-6860
▁fits	-6861
▁mayweather	-6862
▁$5	-6863
ilst	-6864
▁ronaldo	-6865
▁rise	-6866
▁wrist	-6867
ao	-6868
▁biscu	-6869
itos	-6870
▁hater	-6871
▁sid	-6872
▁diaries	-6873
▁sr	-6874
▁poke	-6875
▁hahahahahaha	-6876
▁swollen	-6877
▁cheeky	-6878
▁parag	-6879
sn	-6880
▁kd	-6881
hhhh	-6882
_^	-6883
▁partic	-6884
hour	-6885
▁teddy	-6886
vor	-6887
anie	-6888
▁seasons	-6889
▁polish	-6890
▁uno	-6891
▁nature	-6892
▁tele	-6893
▁ugliest	-6894
▁fridays	-6895
▁mosquito	-6896
▁deter	-6897
▁irish	-6898
1.	-6899
▁answered	-6900
▁wasting	-6901
▁caption	-6902
▁surround	-6903
_-	-6904
▁hr	-6905
▁steps	-6906
▁indones	-6907
▁physically	-6908
▁gg	-6909
▁mates	-6910
▁chasing	-6911
▁lim	-6912
▁higher	-6913
▁fag	-6914
▁gian	-6915
eness	-6916
▁wouldnt	-6917
▁parad	-6918
▁security	-6919
▁thomas	-6920
▁tail	-6921
▁fathers	-6922
▁dreading	-6923
overs	-6924
▁cakes	-6925
▁han	-6926
onto	-6927
▁bowling	-6928
▁cheering	-6929
▁closing	-6930
▁roof	-6931
▁collection	-6932
▁niger	-6933
▁cigare	-6934
gent	-6935
mother	-6936
▁criminal	-6937
▁held	-6938
▁peeps	-6939
▁sleepover	-6940
▁grill	-6941
▁holla	-6942
▁dumbest	-6943
fam	-6944
▁dah	-6945
▁singer	-6946
▁rave	-6947
▁scandal	-6948
itter	-6949
▁liar	-6950
▁complicated	-6951
erc	-6952
>”.	-6953
rolling	-6954
▁matthew	-6955
▁waffle	-6956
▁||	-6957
ppies	-6958
▁separ	-6959
▁root	-6960
▁neva	-6961
▁gained	-6962
▁kendall	-6963
▁noooo	-6964
▁infl	-6965
▁nana	-6966
chy	-6967
▁research	-6968
▁written	-6969
know	-6970
▁triple	-6971
▁lifetime	-6972
▁sorted	-6973
▁takin	-6974
▁timing	-6975
▁inches	-6976
▁bathing	-6977
▁twatch	-6978
▁bridge	-6979
▁playoffs	-6980
▁gentle	-6981
▁invest	-6982
▁braids	-6983
icke	-6984
▁sausage	-6985
▁secrets	-6986
▁os	-6987
flies	-6988
▁watchin	-6989
.-	-6990
▁francis	-6991
▁grass	-6992
birthday	-6993
▁jeremy	-6994
▁parade	-6995
▁whilst	-6996
▁preach	-6997
▁seven	-6998
ante	-6999
▁pag	-7000
mfao	-7001
sorry	-7002
▁nuggets	-7003
world	-7004
bull	-7005
▁celebrity	-7006
▁regardless	-7007
▁ink	-7008
▁shid	-7009
aud	-7010
▁sleeve	-7011
▁cami	-7012
▁swallow	-7013
▁biology	-7014
▁follback	-7015
▁laura	-7016
▁ours	-7017
▁jai	-7018
▁ing	-7019
hell	-7020
▁stitch	-7021
▁scen	-7022
vision	-7023
▁crime	-7024
▁nad	-7025
▁hunt	-7026
▁beans	-7027
▁songz	-7028
hate	-7029
▁ohmy	-7030
▁jade	-7031
▁awwww	-7032
▁union	-7033
▁product	-7034
▁gaga	-7035
▁creeping	-7036
ands	-7037
cra	-7038
▁appreciation	-7039
▁brag	-7040
▁ultimate	-7041
etti	-7042
▁gods	-7043
▁built	-7044
▁slam	-7045
▁roller	-7046
▁smashed	-7047
▁aver	-7048
▁baw	-7049
▁worrying	-7050
▁joseline	-7051
▁fry	-7052
▁retarded	-7053
▁yeahh	-7054
▁pas	-7055
▁certainly	-7056
▁eli	-7057
cent	-7058
▁jerry	-7059
▁saddest	-7060
▁beliebers	-7061
▁championship	-7062
▁dd	-7063
▁kir	-7064
▁yuh	-7065
low	-7066
▁rug	-7067
▁anton	-7068
▁hubby	-7069
▁cupcakes	-7070
cream	-7071
▁bæ	-7072
▁🌏	-7073
iner	-7074
▁shifts	-7075
▁auto	-7076
isy	-7077
▁🌌	-7078
▁godd	-7079
▁local	-7080
▁gam	-7081
▁sout	-7082
▁lack	-7083
bad	-7084
▁ruining	-7085
orrect	-7086
▁grandparents	-7087
▁subject	-7088
▁plug	-7089
▁dutch	-7090
---	-7091
▁ille	-7092
▁progress	-7093
▁brb	-7094
▁juan	-7095
▁freshmen	-7096
nah	-7097
sy	-7098
lus	-7099
▁shan	-7100
▁selfish	-7101
▁impro	-7102
▁vio	-7103
▁pony	-7104
▁uhm	-7105
▁exo	-7106
anned	-7107
sw	-7108
west	-7109
▁sammy	-7110
aaaaaaaa	-7111
▁fifty	-7112
▁payday	-7113
ucky	-7114
▁guest	-7115
▁cray	-7116
____	-7117
▁blown	-7118
▁instantly	-7119
▁element	-7120
▁ee	-7121
▁yous	-7122
"?	-7123
▁seahawks	-7124
▁opposite	-7125
▁oi	-7126
▁bam	-7127
▁athlet	-7128
▁watermel	-7129
▁bid	-7130
zi	-7131
▁shak	-7132
▁🇫🇷	-7133
▁🌿	-7134
	-7135
▁canceled	-7136
▁sleeps	-7137
mid	-7138
▁ariz	-7139
▁sia	-7140
▁nerve	-7141
▁marriage	-7142
▁cracks	-7143
▁freed	-7144
▁wes	-7145
▁tempted	-7146
▁wu	-7147
▁carolina	-7148
▁-@	-7149
▁letters	-7150
▁inna	-7151
▁og	-7152
▁pose	-7153
▁dicks	-7154
▁dram	-7155
▁pred	-7156
▁fitness	-7157
never	-7158
▁sym	-7159
▁greece	-7160
▁gall	-7161
cil	-7162
▁flood	-7163
▁mug	-7164
▁assist	-7165
▁fade	-7166
kers	-7167
▁mariah	-7168
▁pud	-7169
▁sticks	-7170
▁bh	-7171
▁electric	-7172
▁slightly	-7173
▁dats	-7174
▁wreck	-7175
▁adult	-7176
mins	-7177
▁jackie	-7178
▁popular	-7179
▁dunkin	-7180
▁details	-7181
▁stank	-7182
▁bugs	-7183
▁shad	-7184
▁condom	-7185
▁bebe	-7186
aph	-7187
▁vip	-7188
▁puff	-7189
▁genius	-7190
▁edge	-7191
▁dangerous	-7192
▁spoke	-7193
▁giveaway	-7194
▁migr	-7195
>/12	-7196
▁spl	-7197
▁theyre	-7198
▁members	-7199
▁sydney	-7200
▁locker	-7201
▁mcc	-7202
▁multip	-7203
▁ireland	-7204
oles	-7205
▁clar	-7206
▁puppies	-7207
▁tast	-7208
mma	-7209
vet	-7210
▁darkskin	-7211
lando	-7212
▁coulda	-7213
▁snowing	-7214
▁usern	-7215
▁finds	-7216
▁shm	-7217
▁market	-7218
▁clim	-7219
▁rab	-7220
▁nominated	-7221
▁skate	-7222
▁aqu	-7223
▁breathing	-7224
▁desk	-7225
▁relate	-7226
▁**	-7227
33	-7228
met	-7229
▁sweating	-7230
▁galax	-7231
▁crop	-7232
▁toy	-7233
▁depends	-7234
▁promot	-7235
▁trips	-7236
▁penis	-7237
▁nurs	-7238
▁siblings	-7239
▁farm	-7240
▁community	-7241
▁decides	-7242
ria	-7243
▁”"	-7244
▁buu	-7245
ropri	-7246
▁replay	-7247
▁mario	-7248
▁ibiza	-7249
▁wished	-7250
▁👴	-7251
eling	-7252
▁numb	-7253
▁promised	-7254
oons	-7255
une	-7256
ittle	-7257
▁doors	-7258
▁stripper	-7259
▁bears	-7260
was	-7261
▁wil	-7262
▁avoid	-7263
▁orient	-7264
nat	-7265
▁adding	-7266
▁network	-7267
bi	-7268
▁cinema	-7269
▁oreo	-7270
▁haun	-7271
▁pam	-7272
▁ache	-7273
▁oak	-7274
iving	-7275
▁personally	-7276
▁charlot	-7277
essions	-7278
▁arizona	-7279
▁moan	-7280
▁danie	-7281
▁leeds	-7282
▁betta	-7283
▁🐳	-7284
▁characters	-7285
▁punched	-7286
▁cell	-7287
'.	-7288
▁iced	-7289
aper	-7290
▁africa	-7291
▁presentation	-7292
ymar	-7293
▁curse	-7294
▁potatoes	-7295
▁advert	-7296
▁niggaz	-7297
▁mud	-7298
▁baddest	-7299
▁honesty	-7300
▁donut	-7301
▁theat	-7302
▁cot	-7303
▁jj	-7304
▁ww	-7305
▁silver	-7306
▁turnup	-7307
▁prepare	-7308
▁bikini	-7309
▁roses	-7310
▁experien	-7311
▁pushing	-7312
▁stan	-7313
▁covers	-7314
▁”@	-7315
▁dreads	-7316
▁spelled	-7317
▁cree	-7318
▁realist	-7319
▁paige	-7320
amel	-7321
ander	-7322
▁styles	-7323
▁films	-7324
▁loll	-7325
▁shore	-7326
girls	-7327
inis	-7328
▁eva	-7329
▁reminder	-7330
▁ss	-7331
hun	-7332
osa	-7333
▁dragon	-7334
▁shoulders	-7335
▁duty	-7336
▁cams	-7337
▁salon	-7338
ggie	-7339
▁hyped	-7340
▁pint	-7341
▁erica	-7342
▁pasta	-7343
ggin	-7344
▁sassy	-7345
▁convince	-7346
▁michigan	-7347
ique	-7348
mili	-7349
▁admi	-7350
▁funeral	-7351
▁boxing	-7352
▁📢	-7353
▁faggot	-7354
epend	-7355
▁oregon	-7356
pop	-7357
▁nerd	-7358
▁olivia	-7359
sure	-7360
▁insec	-7361
▁android	-7362
▁adop	-7363
▁customer	-7364
▁gta	-7365
▁cord	-7366
▁racist	-7367
▁ci	-7368
▁arse	-7369
ardo	-7370
enders	-7371
▁realest	-7372
▁allergic	-7373
month	-7374
▁👧	-7375
▁stretch	-7376
izzy	-7377
unte	-7378
aconda	-7379
▁len	-7380
▁ordering	-7381
▁shitt	-7382
ask	-7383
▁missin	-7384
1,	-7385
izing	-7386
▁abby	-7387
▁_	-7388
▁yeh	-7389
▁achie	-7390
hern	-7391
▁yog	-7392
▁scares	-7393
▁paradise	-7394
▁homemade	-7395
only	-7396
▁init	-7397
▁combin	-7398
▁shrimp	-7399
▁tops	-7400
▁funnier	-7401
big	-7402
▁vill	-7403
▁dean	-7404
▁🐒	-7405
▁liv	-7406
▁baked	-7407
▁blasting	-7408
▁columb	-7409
▁patrick	-7410
▁rite	-7411
▁valley	-7412
▁wi	-7413
adium	-7414
▁delivery	-7415
▁shutup	-7416
▁sensitive	-7417
▁obama	-7418
eet	-7419
▁hust	-7420
▁miracle	-7421
vis	-7422
▁benef	-7423
▁milkshake	-7424
▁steel	-7425
▁curious	-7426
▁burrito	-7427
▁lush	-7428
▁shovel	-7429
▁snake	-7430
▁eww	-7431
▁semi	-7432
▁dp	-7433
▁slapped	-7434
36	-7435
erto	-7436
home	-7437
▁lololol	-7438
▁flower	-7439
▁oc	-7440
▁godbless	-7441
▁wears	-7442
▁galaxy	-7443
▁📲	-7444
▁sounded	-7445
▁messi	-7446
▁neymar	-7447
▁fucc	-7448
▁gt	-7449
▁kms	-7450
▁aggrav	-7451
mpt	-7452
▁maddie	-7453
▁exerc	-7454
▁location	-7455
▁warning	-7456
▁cuddled	-7457
▁signs	-7458
▁🐴	-7459
▁motor	-7460
▁insur	-7461
year	-7462
▁decor	-7463
▁nur	-7464
▁released	-7465
▁hunting	-7466
▁tysm	-7467
▁result	-7468
▁silence	-7469
▁facetim	-7470
rob	-7471
▁gabby	-7472
▁surf	-7473
▁pup	-7474
▁goooo	-7475
▁cind	-7476
▁cod	-7477
▁sings	-7478
▁^_^	-7479
▁🌅	-7480
▁compe	-7481
▁humble	-7482
▁chills	-7483
▁blows	-7484
▁cherry	-7485
▁watermelon	-7486
style	-7487
▁vanilla	-7488
▁lovee	-7489
▁tae	-7490
▁naman	-7491
▁techn	-7492
▁package	-7493
▁burned	-7494
▁patriots	-7495
▁hottie	-7496
▁freaks	-7497
▁gtfo	-7498
tie	-7499
▁stubborn	-7500
▁🔮	-7501
▁olive	-7502
▁surprising	-7503
care	-7504
.?	-7505
▁aware	-7506
▁larry	-7507
▁paragrap	-7508
ula	-7509
▁whoops	-7510
▁sant	-7511
▁justice	-7512
▁cbb	-7513
will	-7514
▁bom	-7515
▁soda	-7516
34	-7517
othing	-7518
▁das	-7519
▁based	-7520
▁slo	-7521
▁sweats	-7522
▁spelling	-7523
▁shxt	-7524
▁acts	-7525
▁gates	-7526
kee	-7527
▁resist	-7528
▁universe	-7529
▁cafe	-7530
▁joint	-7531
▁independ	-7532
▁courtney	-7533
▁muscle	-7534
venge	-7535
aaaah	-7536
▁recommend	-7537
▁blush	-7538
▁heal	-7539
▁mikey	-7540
▁creative	-7541
▁efr	-7542
▁cleve	-7543
mad	-7544
▁arab	-7545
▁lemonade	-7546
▁gear	-7547
▁smelling	-7548
▁champions	-7549
front	-7550
▁defense	-7551
▁leon	-7552
▁charlotte	-7553
▁stopping	-7554
▁infin	-7555
▁ight	-7556
▁emplo	-7557
▁sarcastic	-7558
▁noah	-7559
▁homeless	-7560
▁lew	-7561
▁sip	-7562
okay	-7563
▁panda	-7564
▁colombia	-7565
tha	-7566
▁tastes	-7567
▁relevant	-7568
▁straighten	-7569
▁trag	-7570
▁illegal	-7571
▁oscar	-7572
▁pale	-7573
▁🇮🇹	-7574
▁smacked	-7575
bell	-7576
▁curve	-7577
▁ward	-7578
▁mars	-7579
<<<	-7580
▁flies	-7581
olution	-7582
exc	-7583
▁imess	-7584
▁pear	-7585
too	-7586
▁taxi	-7587
▁stuffed	-7588
▁grocery	-7589
▁lisa	-7590
aay	-7591
▁belated	-7592
▁sentence	-7593
99	-7594
▁orlando	-7595
▁km	-7596
▁jee	-7597
▁partying	-7598
▁jad	-7599
▁staff	-7600
▁nipple	-7601
▁humor	-7602
▁ast	-7603
▁belt	-7604
▁ranch	-7605
nnn	-7606
▁wha	-7607
▁chi	-7608
▁patiently	-7609
nots	-7610
▁patch	-7611
▁indonesia	-7612
mail	-7613
▁function	-7614
keep	-7615
▁anaconda	-7616
▁levels	-7617
urally	-7618
▁nu	-7619
▁volunte	-7620
▁hid	-7621
▁wars	-7622
▁highly	-7623
▁buss	-7624
▁whos	-7625
iles	-7626
▁stadium	-7627
▁wicked	-7628
▁hahahha	-7629
▁gary	-7630
▁painting	-7631
▁sb	-7632
look	-7633
▁hookah	-7634
▁alge	-7635
▁rode	-7636
▁wt	-7637
jay	-7638
▁oper	-7639
wr	-7640
▁eleph	-7641
▁dread	-7642
acc	-7643
▁replies	-7644
ropriate	-7645
▁international	-7646
▁chatting	-7647
▁coache	-7648
▁nas	-7649
▁chargers	-7650
▁purge	-7651
▁ahahaha	-7652
▁attempt	-7653
▁vanessa	-7654
▁🎣	-7655
▁neighborhood	-7656
▁👦	-7657
gle	-7658
hot	-7659
▁polit	-7660
▁gc	-7661
▁''	-7662
▁snack	-7663
▁emotionally	-7664
▁💲	-7665
thinking	-7666
▁praise	-7667
▁ace	-7668
▁logan	-7669
▁commun	-7670
▁weirdo	-7671
▁brittany	-7672
fly	-7673
▁inbox	-7674
case	-7675
▁distr	-7676
▁freedom	-7677
▁fred	-7678
▁forced	-7679
▁coat	-7680
▁nate	-7681
▁username	-7682
▁stalker	-7683
▁testing	-7684
itions	-7685
▁including	-7686
▁influ	-7687
mission	-7688
▁factor	-7689
▁goood	-7690
▁ova	-7691
▁chain	-7692
▁cleveland	-7693
fil	-7694
▁elementary	-7695
▁ox	-7696
▁vagina	-7697
▁derek	-7698
▁algebra	-7699
▁jst	-7700
▁adventures	-7701
▁nikki	-7702
▁coachella	-7703
▁meanwhile	-7704
▁sexiest	-7705
▁goose	-7706
▁prettier	-7707
▁treats	-7708
▁refle	-7709
▁cuter	-7710
▁immature	-7711
▁📺	-7712
▁nfl	-7713
▁opportunity	-7714
▁bumm	-7715
oph	-7716
▁revenge	-7717
▁events	-7718
▁connection	-7719
▁rly	-7720
''	-7721
utella	-7722
▁southern	-7723
>/6	-7724
▁snitch	-7725
lli	-7726
▁billy	-7727
▁wax	-7728
▁🐥	-7729
iper	-7730
▁julia	-7731
broken	-7732
▁boost	-7733
▁knw	-7734
▁sket	-7735
osal	-7736
▁squee	-7737
▁👂	-7738
▁temper	-7739
abe	-7740
▁bounce	-7741
yee	-7742
▁houses	-7743
▁rolled	-7744
▁\	-7745
▁efron	-7746
▁orientation	-7747
▁yogurt	-7748
▁youuu	-7749
▁snugg	-7750
▁malays	-7751
cons	-7752
▁average	-7753
▁buddies	-7754
core	-7755
▁tellin	-7756
▁thanx	-7757
▁ipod	-7758
▁natal	-7759
▁nickname	-7760
▁gona	-7761
▁naturally	-7762
▁cin	-7763
▁paycheck	-7764
▁upstairs	-7765
▁roommates	-7766
▁material	-7767
▁lob	-7768
▁hills	-7769
▁kfc	-7770
vern	-7771
▁madness	-7772
burg	-7773
▁🍼	-7774
▁panic	-7775
▁👓	-7776
want	-7777
stic	-7778
▁blues	-7779
tal	-7780
notsorry	-7781
▁sem	-7782
▁hush	-7783
glasses	-7784
breaking	-7785
▁boosie	-7786
▁marcus	-7787
▁tiger	-7788
▁blocking	-7789
fall	-7790
▁shaved	-7791
▁cyrus	-7792
▁caramel	-7793
▁deffo	-7794
▁jamming	-7795
▁🔴	-7796
▁robert	-7797
ano	-7798
▁foul	-7799
udge	-7800
▁squats	-7801
▁mmm	-7802
▁eats	-7803
▁🚮	-7804
▁map	-7805
▁latest	-7806
▁mitch	-7807
▁determin	-7808
▁rollin	-7809
▁masc	-7810
then	-7811
▁feature	-7812
▁lakers	-7813
reen	-7814
▁bul	-7815
aaaaaa	-7816
▁🎇	-7817
▁puerto	-7818
▁nutella	-7819
▁yaw	-7820
▁yaaas	-7821
▁heated	-7822
▁asia	-7823
▁sink	-7824
ories	-7825
▁tang	-7826
▁merch	-7827
oner	-7828
▁barber	-7829
39	-7830
▁sharp	-7831
▁rach	-7832
▁wy	-7833
iantly	-7834
▁besties	-7835
▁talm	-7836
▁fold	-7837
▁bully	-7838
www	-7839
ication	-7840
▁arr	-7841
▁dishes	-7842
▁created	-7843
▁heyy	-7844
▁jesse	-7845
▁sorrynotsorry	-7846
▁frog	-7847
▁hahaa	-7848
▁nand	-7849
▁antonio	-7850
▁haunted	-7851
▁ard	-7852
▁desp	-7853
onna	-7854
▁typing	-7855
▁eagles	-7856
▁-.-	-7857
fered	-7858
▁spare	-7859
ctor	-7860
▁frustrating	-7861
miliar	-7862
▁reckless	-7863
▁miranda	-7864
▁haley	-7865
▁strangers	-7866
▁🍇	-7867
▁oppa	-7868
▁floyd	-7869
▁warriors	-7870
▁sd	-7871
▁impressed	-7872
oys	-7873
▁actin	-7874
▁burgers	-7875
49	-7876
tions	-7877
▁pushed	-7878
▁pineapple	-7879
▁meek	-7880
▁aight	-7881
▁yesss	-7882
abur	-7883
sta	-7884
▁pole	-7885
▁quotes	-7886
family	-7887
even	-7888
cia	-7889
▁reached	-7890
▁grac	-7891
▁miller	-7892
apes	-7893
▁skating	-7894
▁fallen	-7895
▁✏	-7896
▁dol	-7897
▁sara	-7898
▁jenny	-7899
▁however	-7900
▁brows	-7901
▁lovers	-7902
▁slush	-7903
▁cait	-7904
▁rains	-7905
hee	-7906
▁china	-7907
▁skirt	-7908
yah	-7909
▁hyp	-7910
▁bones	-7911
▁blunts	-7912
inas	-7913
▁aim	-7914
▁ellie	-7915
ases	-7916
▁cheesy	-7917
blo	-7918
▁eth	-7919
umbs	-7920
maid	-7921
▁feb	-7922
asure	-7923
lah	-7924
▁clever	-7925
▁cel	-7926
▁pains	-7927
▁cared	-7928
▁announ	-7929
▁hut	-7930
▁bush	-7931
▁hh	-7932
▁qt	-7933
▁hyper	-7934
sty	-7935
▁therapy	-7936
▁bent	-7937
aka	-7938
▁mand	-7939
▁notification	-7940
bon	-7941
▁arch	-7942
▁poster	-7943
▁vin	-7944
ghetti	-7945
70	-7946
▁psycho	-7947
▁usher	-7948
▁lower	-7949
▁homes	-7950
ock	-7951
▁oreos	-7952
▁pi	-7953
▁incredibly	-7954
▁kenny	-7955
▁cs	-7956
▁carn	-7957
▁bastard	-7958
▁noon	-7959
▁callin	-7960
▁hunny	-7961
bury	-7962
factor	-7963
▁layout	-7964
nigga	-7965
▁olds	-7966
▁mack	-7967
▁ios	-7968
▁loooool	-7969
▁hv	-7970
▁unbelievable	-7971
▁omw	-7972
take	-7973
▁autoc	-7974
df	-7975
▁range	-7976
▁prayer	-7977
▁judging	-7978
▁flew	-7979
▁hab	-7980
▁shed	-7981
▁mutha	-7982
▁danielle	-7983
▁satisfied	-7984
▁mast	-7985
▁sunglasses	-7986
▁woohoo	-7987
medi	-7988
burgh	-7989
▁spoon	-7990
▁joan	-7991
▁lun	-7992
▁bible	-7993
▁lighter	-7994
wow	-7995
lers	-7996
▁harris	-7997
▁meow	-7998
▁wrapped	-7999
▁🐟	-8000
anas	-8001
▁offered	-8002
really	-8003
▁nightmares	-8004
▁,,	-8005
>*	-8006
▁crunch	-8007
▁trav	-8008
itas	-8009
▁chef	-8010
▁scor	-8011
▁tah	-8012
▁shady	-8013
▁ze	-8014
ivered	-8015
▁inspired	-8016
▁spaghetti	-8017
▁tori	-8018
hal	-8019
▁dab	-8020
▁routine	-8021
party	-8022
▁wk	-8023
▁celebration	-8024
▁montana	-8025
▁pros	-8026
▁richard	-8027
....	-8028
▁raised	-8029
▁bachelor	-8030
▁multiple	-8031
▁pipe	-8032
milar	-8033
▁rah	-8034
arez	-8035
ption	-8036
▁theory	-8037
vv	-8038
▁showers	-8039
▁nig	-8040
▁education	-8041
▁directioners	-8042
▁bamb	-8043
▁bol	-8044
▁🌃	-8045
▁vic	-8046
▁lexi	-8047
▁concerts	-8048
▁khal	-8049
zone	-8050
▁aub	-8051
▁⚓	-8052
",	-8053
▁gur	-8054
▁discount	-8055
oli	-8056
▁fc	-8057
▁finest	-8058
▁ji	-8059
▁normally	-8060
▁hund	-8061
▁grammar	-8062
▁sunset	-8063
▁squir	-8064
▁tamp	-8065
▁access	-8066
▁torture	-8067
▁sons	-8068
▁uses	-8069
▁carl	-8070
▁sneaky	-8071
▁spice	-8072
▁walker	-8073
yyyy	-8074
▁paran	-8075
again	-8076
▁foods	-8077
aburger	-8078
▁butterflies	-8079
▁jb	-8080
▁sf	-8081
sl	-8082
▁brat	-8083
▁rocky	-8084
▁shark	-8085
▁transl	-8086
aaaat	-8087
▁alab	-8088
from	-8089
orms	-8090
people	-8091
▁tia	-8092
▁banter	-8093
ential	-8094
▁thrown	-8095
▁kidn	-8096
38	-8097
▁familiar	-8098
▁customers	-8099
▁delivered	-8100
▁nude	-8101
▁sumn	-8102
>@	-8103
pants	-8104
▁surprises	-8105
▁autocorrect	-8106
▁$100	-8107
▁aaa	-8108
▁bffs	-8109
▁gud	-8110
▁props	-8111
▁understood	-8112
▁birthdayy	-8113
▁openfollow	-8114
▁troy	-8115
▁ghana	-8116
▁romeo	-8117
2.	-8118
▁pil	-8119
▁updates	-8120
▁secretly	-8121
par	-8122
▁chr	-8123
▁{}	-8124
rated	-8125
▁giants	-8126
▁🏿	-8127
▁deck	-8128
ikes	-8129
ddd	-8130
hold	-8131
▁darn	-8132
▁💳	-8133
000	-8134
ores	-8135
▁similar	-8136
~~	-8137
aser	-8138
48	-8139
enna	-8140
▁alsina	-8141
▁attracted	-8142
ties	-8143
▁blaz	-8144
▁juicy	-8145
▁watches	-8146
free	-8147
▁thee	-8148
▁downloaded	-8149
umps	-8150
▁tricks	-8151
run	-8152
▁tra	-8153
▁dvd	-8154
▁tempor	-8155
forever	-8156
amn	-8157
▁web	-8158
▁naa	-8159
▁hundred	-8160
▁alert	-8161
▁neckl	-8162
▁mani	-8163
▁coun	-8164
▁vel	-8165
▁blank	-8166
▁kian	-8167
▁nominate	-8168
▁christina	-8169
▁entertainment	-8170
▁sista	-8171
rina	-8172
mine	-8173
▁heartbreaking	-8174
▁defiantly	-8175
▁bash	-8176
▁tack	-8177
▁nigh	-8178
▁bulls	-8179
▁🍒	-8180
▁idi	-8181
▁headaches	-8182
▁hamm	-8183
oooooooo	-8184
▁keith	-8185
▁hallway	-8186
▁seb	-8187
rft	-8188
call	-8189
▁false	-8190
▁chilled	-8191
▁kentucky	-8192
▁remembers	-8193
▁cable	-8194
▁colorado	-8195
▁pron	-8196
▁whataburger	-8197
▁steady	-8198
▁remembering	-8199
reme	-8200
▁buh	-8201
▁snapped	-8202
▁searching	-8203
aid	-8204
▁wer	-8205
▁engaged	-8206
▁offended	-8207
***	-8208
ager	-8209
yyyyy	-8210
▁inch	-8211
eva	-8212
▁tutor	-8213
▁article	-8214
▁guns	-8215
▁pause	-8216
oured	-8217
▁relig	-8218
▁duke	-8219
beat	-8220
▁cul	-8221
▁switched	-8222
▁⚫	-8223
▁brend	-8224
▁hunger	-8225
▁statement	-8226
▁nashville	-8227
eem	-8228
▁fuk	-8229
▁closest	-8230
▁brick	-8231
▁cocky	-8232
aled	-8233
▁bothering	-8234
itary	-8235
bage	-8236
▁castle	-8237
▁glee	-8238
▁ayee	-8239
▁dot	-8240
▁oml	-8241
llll	-8242
▁pong	-8243
▁dancer	-8244
▁premiere	-8245
▁yaaaas	-8246
▁🍎	-8247
▁workin	-8248
▁sarcasm	-8249
umpy	-8250
▁ourselves	-8251
▁joining	-8252
▁terms	-8253
berty	-8254
▁jenna	-8255
▁grandmas	-8256
ookie	-8257
nia	-8258
▁hack	-8259
▁wherever	-8260
▁clap	-8261
▁infect	-8262
▁trees	-8263
▁nandos	-8264
ulu	-8265
keys	-8266
▁bracelet	-8267
▁smfh	-8268
▁stroke	-8269
▁racing	-8270
▁bedtime	-8271
next	-8272
▁douch	-8273
▁recording	-8274
gga	-8275
itis	-8276
▁apps	-8277
▁breast	-8278
mic	-8279
▁suic	-8280
balls	-8281
47	-8282
mph	-8283
▁viv	-8284
▁zoe	-8285
▁vars	-8286
▁yayy	-8287
▁crist	-8288
wag	-8289
▁cups	-8290
▁famil	-8291
▁iam	-8292
▁migos	-8293
arant	-8294
▁greg	-8295
▁lolz	-8296
▁kool	-8297
▁mouse	-8298
▁goddess	-8299
▁sweets	-8300
▁-_-	-8301
gen	-8302
har	-8303
▁nye	-8304
▁baking	-8305
▁escape	-8306
▁clip	-8307
▁bits	-8308
▁nurse	-8309
▁arrive	-8310
▁howard	-8311
ev	-8312
▁imiss	-8313
wed	-8314
still	-8315
dont	-8316
▁dal	-8317
▁pleased	-8318
▁ramad	-8319
▁:"	-8320
aye	-8321
▁immedi	-8322
▁waffles	-8323
make	-8324
▁imessage	-8325
▁conference	-8326
▁damm	-8327
▁tro	-8328
▁mtv	-8329
▁lan	-8330
▁ooo	-8331
llie	-8332
thy	-8333
▁dia	-8334
hip	-8335
ease	-8336
dul	-8337
▁🇬🇧	-8338
▁darren	-8339
▁assholes	-8340
vine	-8341
▁prize	-8342
▁assignments	-8343
hem	-8344
▁idiots	-8345
▁thumb	-8346
think	-8347
▁fy	-8348
▁luis	-8349
▁cavs	-8350
▁stands	-8351
quan	-8352
icket	-8353
rend	-8354
▁brady	-8355
▁rapping	-8356
▁woods	-8357
▁varsity	-8358
▁cb	-8359
▁rubbed	-8360
▁ashamed	-8361
▁paw	-8362
▁pouring	-8363
▁nt	-8364
46	-8365
▁forest	-8366
▁anxious	-8367
▁tj	-8368
▁govern	-8369
ists	-8370
▁buys	-8371
amat	-8372
▁networks	-8373
▁🔑	-8374
lov	-8375
▁ski	-8376
▁melissa	-8377
▁craig	-8378
▁!"	-8379
lmfao	-8380
▁worn	-8381
lu	-8382
▁dong	-8383
burger	-8384
net	-8385
leans	-8386
▁wiggle	-8387
urry	-8388
▁arrested	-8389
▁ting	-8390
▁loosing	-8391
▁hud	-8392
▁ruth	-8393
▁cooler	-8394
▁aven	-8395
▁sides	-8396
▁tone	-8397
▁frankie	-8398
▁meets	-8399
▁depression	-8400
▁gy	-8401
▁becky	-8402
▁craziest	-8403
struggle	-8404
▁tease	-8405
▁expose	-8406
▁lb	-8407
▁situations	-8408
▁toronto	-8409
cat	-8410
antage	-8411
▁👃	-8412
▁mummy	-8413
▁peach	-8414
▁counts	-8415
▁cupcake	-8416
▁tequ	-8417
▁amb	-8418
▁ooooh	-8419
▁bart	-8420
▁andrea	-8421
▁brasil	-8422
▁gemin	-8423
need	-8424
▁🍊	-8425
▁filter	-8426
niel	-8427
▁bodies	-8428
▁annoys	-8429
loved	-8430
ggers	-8431
▁hors	-8432
maybe	-8433
▁determined	-8434
▁prim	-8435
▁failing	-8436
▁billion	-8437
▁coughing	-8438
hr	-8439
▁pretending	-8440
90	-8441
▁bruce	-8442
▁subtweets	-8443
▁piano	-8444
stream	-8445
▁smokin	-8446
▁rainbow	-8447
▁rangers	-8448
▁dummy	-8449
▁alabama	-8450
▁gass	-8451
▁cub	-8452
▁screamed	-8453
▁puss	-8454
▁doub	-8455
cue	-8456
ctic	-8457
▁encour	-8458
▁greek	-8459
▁shattered	-8460
▁plat	-8461
▁midterm	-8462
▁create	-8463
▁memorial	-8464
ador	-8465
▁vick	-8466
erve	-8467
▁yessss	-8468
▁rehe	-8469
▁lily	-8470
▁coc	-8471
▁oly	-8472
▁cookout	-8473
▁becomes	-8474
umn	-8475
▁uggs	-8476
▁insecure	-8477
▁mush	-8478
▁jp	-8479
always	-8480
▁charles	-8481
▁cheerleaders	-8482
▁baee	-8483
▁guide	-8484
aped	-8485
umble	-8486
▁dramatic	-8487
▁skins	-8488
▁phase	-8489
▁birthd	-8490
▁wrestling	-8491
aints	-8492
▁peaceful	-8493
ansas	-8494
▁swed	-8495
▁dess	-8496
▁madden	-8497
▁brent	-8498
▁spicy	-8499
atient	-8500
haps	-8501
▁garage	-8502
▁myster	-8503
▁thor	-8504
▁handed	-8505
▁bk	-8506
icure	-8507
▁xoxox	-8508
ghh	-8509
▁́	-8510
▁thnx	-8511
▁actor	-8512
▁evan	-8513
umes	-8514
▁queens	-8515
▁nosey	-8516
▁loner	-8517
uhh	-8518
▁grilled	-8519
▁projects	-8520
althy	-8521
▁panera	-8522
▁stitches	-8523
▁bong	-8524
▁yolo	-8525
▁sierra	-8526
▁witnessed	-8527
▁mercy	-8528
▁carlos	-8529
▁tommy	-8530
▁muscles	-8531
uz	-8532
▁below	-8533
▁jazz	-8534
▁dubai	-8535
oor	-8536
cute	-8537
▁backwards	-8538
celona	-8539
▁charging	-8540
ttes	-8541
itation	-8542
iggy	-8543
▁washington	-8544
▁walls	-8545
▁bonfire	-8546
▁bern	-8547
▁traveling	-8548
▁scariest	-8549
▁💷	-8550
▁kendrick	-8551
▁peeped	-8552
▁crystal	-8553
ware	-8554
dress	-8555
▁allen	-8556
▁ninja	-8557
uals	-8558
▁calvin	-8559
▁professional	-8560
▁grandmother	-8561
▁pals	-8562
▁useless	-8563
▁accomplished	-8564
▁hahha	-8565
▁mornin	-8566
▁reject	-8567
▁tt	-8568
▁carpet	-8569
▁trophy	-8570
▁recorded	-8571
▁pir	-8572
▁orleans	-8573
▁banging	-8574
▁unfollowing	-8575
ints	-8576
▁ced	-8577
▁kinds	-8578
▁halfway	-8579
him	-8580
show	-8581
▁xfactor	-8582
yard	-8583
▁brid	-8584
▁polo	-8585
▁towel	-8586
acey	-8587
wish	-8588
▁sunburn	-8589
resent	-8590
▁ayo	-8591
▁glow	-8592
▁wats	-8593
▁roads	-8594
▁erin	-8595
▁tuned	-8596
▁scrolling	-8597
▁heartless	-8598
▁addict	-8599
▁tinder	-8600
▁explains	-8601
▁rage	-8602
▁workouts	-8603
▁rant	-8604
▁ribs	-8605
▁calcul	-8606
▁stood	-8607
▁glas	-8608
▁hittin	-8609
inem	-8610
▁theirs	-8611
▁guarant	-8612
▁lotion	-8613
gow	-8614
▁needing	-8615
▁bummed	-8616
arius	-8617
annon	-8618
▁arent	-8619
▁jada	-8620
oms	-8621
hugs	-8622
▁tx	-8623
▁cure	-8624
▁carr	-8625
▁beha	-8626
▁yearbook	-8627
▁yg	-8628
▁choices	-8629
▁grounded	-8630
years	-8631
bey	-8632
▁protein	-8633
▁minus	-8634
▁user	-8635
mmm	-8636
▁bruises	-8637
▁🚿	-8638
▁cuts	-8639
▁advantage	-8640
▁ec	-8641
▁suarez	-8642
ilson	-8643
▁chubby	-8644
▁ald	-8645
▁beers	-8646
arr	-8647
▁lightning	-8648
▁dese	-8649
▁nevermind	-8650
▁donald	-8651
class	-8652
▁menu	-8653
▁crown	-8654
▁coworkers	-8655
▁alham	-8656
▁manila	-8657
▁papi	-8658
▁ht	-8659
▁pairs	-8660
▁military	-8661
sleep	-8662
▁powder	-8663
▁bruno	-8664
▁foc	-8665
uffy	-8666
▁kara	-8667
▁shii	-8668
eryl	-8669
▁lasted	-8670
▁choke	-8671
▁bonding	-8672
friday	-8673
limited	-8674
▁deny	-8675
▁beau	-8676
▁$3	-8677
▁gorg	-8678
▁tad	-8679
▁manz	-8680
▁rud	-8681
▁cheetos	-8682
▁fuckers	-8683
ryn	-8684
▁>>>>>>>>	-8685
▁engine	-8686
▁route	-8687
▁upgrade	-8688
▁passes	-8689
kay	-8690
▁bitters	-8691
▁youth	-8692
▁shir	-8693
▁perfume	-8694
▁tequila	-8695
put	-8696
▁hic	-8697
▁🎬	-8698
eer	-8699
▁mask	-8700
▁scotland	-8701
!<	-8702
▁jessie	-8703
▁elev	-8704
oty	-8705
rrrr	-8706
▁🌲	-8707
▁nine	-8708
▁bran	-8709
▁summers	-8710
▁omm	-8711
▁bin	-8712
▁weigh	-8713
▁grandad	-8714
▁joined	-8715
▁yer	-8716
▁kathniel	-8717
▁ez	-8718
▁sucker	-8719
▁shite	-8720
▁barcelona	-8721
▁veget	-8722
▁pero	-8723
▁collect	-8724
▁riley	-8725
▁muslim	-8726
▁theater	-8727
stone	-8728
▁cmon	-8729
▁cooper	-8730
▁eyelashes	-8731
▁eight	-8732
▁ske	-8733
▁brooklyn	-8734
▁pork	-8735
▁julie	-8736
▁alr	-8737
▁jared	-8738
▁monica	-8739
▁🎢	-8740
▁faded	-8741
▁penn	-8742
▁tiffany	-8743
vu	-8744
▁mint	-8745
▁perhaps	-8746
▁notebook	-8747
▁scenes	-8748
*”	-8749
▁olymp	-8750
▁lac	-8751
▁hisp	-8752
▁rus	-8753
▁fran	-8754
▁photoshop	-8755
ingo	-8756
▁example	-8757
mies	-8758
▁kas	-8759
mark	-8760
▁invent	-8761
text	-8762
▁crave	-8763
door	-8764
ension	-8765
▁heartbroken	-8766
law	-8767
▁leader	-8768
▁government	-8769
▁ov	-8770
idy	-8771
31	-8772
phone	-8773
▁disappoin	-8774
▁snoop	-8775
▁youuuu	-8776
▁immediately	-8777
▁dryer	-8778
▁vans	-8779
▁bittersweet	-8780
▁landed	-8781
ser	-8782
ued	-8783
▁emails	-8784
▁⚪	-8785
▁factory	-8786
▁🏠	-8787
rah	-8788
▁stepped	-8789
bat	-8790
▁overload	-8791
followspree	-8792
▁ruins	-8793
aul	-8794
▁guh	-8795
▁🐙	-8796
ivities	-8797
▁trad	-8798
▁shyt	-8799
▁poison	-8800
▁stephen	-8801
▁roomie	-8802
▁suspended	-8803
▁carnival	-8804
▁twat	-8805
▁rehears	-8806
▁✖	-8807
▁recognize	-8808
▁curls	-8809
▁hats	-8810
▁🍤	-8811
▁horses	-8812
spe	-8813
▁opens	-8814
▁una	-8815
▁scorp	-8816
▁unlimited	-8817
▁🎾	-8818
▁dill	-8819
▁unlike	-8820
gun	-8821
▁kil	-8822
▁focused	-8823
sterdam	-8824
▁colo	-8825
▁mobile	-8826
▁missyou	-8827
▁➡	-8828
uffle	-8829
▁ako	-8830
▁hump	-8831
▁franco	-8832
osk	-8833
azz	-8834
▁mexicans	-8835
▁poland	-8836
▁exited	-8837
▁rockin	-8838
fit	-8839
castle	-8840
▁malaysia	-8841
▁mango	-8842
▁dime	-8843
dm	-8844
▁excuses	-8845
▁missy	-8846
▁mature	-8847
▁tomo	-8848
▁backpack	-8849
▁pressed	-8850
eh	-8851
▁plain	-8852
▁thoo	-8853
▁insurance	-8854
▁bah	-8855
rat	-8856
▁dedicated	-8857
▁@@	-8858
▁shitting	-8859
iko	-8860
▁rugby	-8861
▁mn	-8862
acting	-8863
▁acceptable	-8864
▁gran	-8865
▁nicely	-8866
▁lovey	-8867
▁bold	-8868
▁migraine	-8869
▁dash	-8870
walk	-8871
eno	-8872
▁jonas	-8873
▁temporary	-8874
▁insom	-8875
▁eminem	-8876
ients	-8877
▁bend	-8878
▁snatch	-8879
▁happily	-8880
▁risk	-8881
▁zombie	-8882
ography	-8883
pro	-8884
▁physical	-8885
▁brew	-8886
▁casey	-8887
▁flashback	-8888
▁ankles	-8889
▁rape	-8890
▁admire	-8891
▁information	-8892
rings	-8893
▁curved	-8894
▁biting	-8895
▁batman	-8896
▁hawks	-8897
▁offic	-8898
▁contain	-8899
▁pod	-8900
▁hadn	-8901
▁nina	-8902
▁contract	-8903
▁revise	-8904
▁clothing	-8905
▁anti	-8906
”"	-8907
wind	-8908
▁sept	-8909
▁barbie	-8910
orette	-8911
▁understanding	-8912
▁thestruggle	-8913
▁crawl	-8914
▁amsterdam	-8915
▁cruel	-8916
▁labor	-8917
▁ellen	-8918
▁pengu	-8919
▁soap	-8920
▁flop	-8921
▁rally	-8922
▁pey	-8923
▁pockets	-8924
ele	-8925
▁dani	-8926
fucking	-8927
▁ai	-8928
▁dayy	-8929
▁constant	-8930
▁sos	-8931
▁magcon	-8932
roit	-8933
▁outs	-8934
▁virginia	-8935
▁backs	-8936
▁maya	-8937
▁jav	-8938
▁$10	-8939
▁dawn	-8940
▁attemp	-8941
▁yeet	-8942
▁flights	-8943
▁pooh	-8944
▁necklace	-8945
van	-8946
inch	-8947
iiiii	-8948
▁anne	-8949
▁sales	-8950
video	-8951
▁withdrawals	-8952
▁moods	-8953
▁".	-8954
▁wyd	-8955
▁choir	-8956
▁exercise	-8957
▁sht	-8958
▁theatre	-8959
agement	-8960
▁recover	-8961
▁natalie	-8962
▁ster	-8963
▁afterwards	-8964
▁gals	-8965
stand	-8966
▁nicer	-8967
▁earphones	-8968
▁tou	-8969
▁daisy	-8970
▁mutual	-8971
▁glasgow	-8972
▁isa	-8973
ences	-8974
▁salute	-8975
▁scores	-8976
▁ros	-8977
▁tornado	-8978
job	-8979
▁rubbing	-8980
oni	-8981
▁leah	-8982
▁tgif	-8983
▁blankets	-8984
▁balance	-8985
▁phi	-8986
▁twent	-8987
▁👲	-8988
▁fuss	-8989
▁delight	-8990
▁psychology	-8991
▁spill	-8992
▁lt	-8993
▁mj	-8994
▁happybirthday	-8995
▁icecream	-8996
▁dolph	-8997
cup	-8998
cough	-8999
▁cuffed	-9000
▁touchdown	-9001
▁freeze	-9002
▁🔝	-9003
▁achieve	-9004
hel	-9005
nite	-9006
arms	-9007
hours	-9008
▁cowboy	-9009
▁horn	-9010
----	-9011
▁camil	-9012
timore	-9013
75	-9014
edd	-9015
▁pho	-9016
{})	-9017
▁tiss	-9018
▁canad	-9019
▁🏁	-9020
▁rooms	-9021
▁plastic	-9022
▁grumpy	-9023
>/10	-9024
▁annie	-9025
▁drum	-9026
▁drill	-9027
44	-9028
▁noises	-9029
▁ack	-9030
bod	-9031
▁hairs	-9032
▁sittin	-9033
▁necessary	-9034
▁wipe	-9035
inals	-9036
game	-9037
▁econ	-9038
▁formal	-9039
▁henry	-9040
ea	-9041
▁scoot	-9042
▁rico	-9043
▁honored	-9044
▁murd	-9045
▁application	-9046
▁palm	-9047
▁bleeding	-9048
▁infront	-9049
▁gotcha	-9050
irection	-9051
▁🍬	-9052
▁anal	-9053
▁iphones	-9054
▁eastenders	-9055
▁❕	-9056
asia	-9057
▁sew	-9058
▁rivers	-9059
gger	-9060
▁brotha	-9061
))	-9062
▁scoop	-9063
ination	-9064
▁stores	-9065
whel	-9066
▁py	-9067
▁overd	-9068
▁shining	-9069
32	-9070
▁🍧	-9071
rrrrr	-9072
▁dim	-9073
▁spots	-9074
▁oven	-9075
▁millions	-9076
change	-9077
▁lifestyle	-9078
dale	-9079
▁fairy	-9080
cloud	-9081
▁reminding	-9082
aro	-9083
▁lobster	-9084
aby	-9085
▁kait	-9086
▁edges	-9087
augh	-9088
▁bruise	-9089
▁magical	-9090
▁boun	-9091
idest	-9092
▁fatty	-9093
▁collab	-9094
▁particip	-9095
▁balling	-9096
▁jerk	-9097
▁civ	-9098
▁prime	-9099
▁sticking	-9100
omuch	-9101
▁japanese	-9102
▁plant	-9103
sidered	-9104
▁corey	-9105
iah	-9106
ec	-9107
uss	-9108
▁preparing	-9109
▁geez	-9110
▁tire	-9111
▁mun	-9112
ounge	-9113
▁sandals	-9114
uments	-9115
kid	-9116
▁detroit	-9117
live	-9118
▁velvet	-9119
iee	-9120
▁mik	-9121
▁yrs	-9122
▁buns	-9123
▁nons	-9124
ently	-9125
▁tuck	-9126
shoot	-9127
mingham	-9128
▁sandwiches	-9129
hat	-9130
▁{	-9131
mouth	-9132
▁exes	-9133
▁darker	-9134
wtf	-9135
▁glor	-9136
nut	-9137
▁impatient	-9138
▁mason	-9139
▁exit	-9140
▁upcoming	-9141
stay	-9142
▁majority	-9143
▁considered	-9144
▁cj	-9145
illah	-9146
lete	-9147
▁burst	-9148
▁baltimore	-9149
perfect	-9150
▁fee	-9151
▁claire	-9152
▁kee	-9153
lovato	-9154
▁cryin	-9155
▁stg	-9156
bestfriend	-9157
natural	-9158
▁prices	-9159
▁pim	-9160
▁pays	-9161
▁happpy	-9162
▁stere	-9163
kkk	-9164
▁🎮	-9165
quet	-9166
▁vids	-9167
ondo	-9168
>/...	-9169
▁butth	-9170
icate	-9171
▁owner	-9172
▁fux	-9173
▁gator	-9174
ras	-9175
writ	-9176
▁folk	-9177
▁earthqu	-9178
▁twisted	-9179
▁speaks	-9180
bout	-9181
▁boxes	-9182
▁joseph	-9183
imples	-9184
▁slave	-9185
▁gate	-9186
▁jgh	-9187
▁caps	-9188
fia	-9189
▁karen	-9190
aaat	-9191
▁adrian	-9192
▁thunderst	-9193
▁combination	-9194
▁tin	-9195
▁whipped	-9196
▁bachelorette	-9197
▁stupidest	-9198
last	-9199
sigh	-9200
eries	-9201
▁carrie	-9202
▁stoner	-9203
▁technically	-9204
▁serve	-9205
ourne	-9206
▁tied	-9207
▁urge	-9208
▁reve	-9209
▁penal	-9210
▁eyeliner	-9211
season	-9212
▁dated	-9213
▁injured	-9214
55	-9215
▁tina	-9216
▁shared	-9217
chill	-9218
▁society	-9219
▁slice	-9220
▁incase	-9221
▁matches	-9222
▁shane	-9223
inson	-9224
▁feat	-9225
▁throughout	-9226
▁timber	-9227
heads	-9228
▁lewis	-9229
▁confirm	-9230
ials	-9231
pee	-9232
▁hmmm	-9233
amm	-9234
nies	-9235
▁ehh	-9236
▁votedemi	-9237
wu	-9238
▁eddie	-9239
▁birmingham	-9240
pping	-9241
sell	-9242
▁picks	-9243
lied	-9244
▁🍜	-9245
▁sams	-9246
▁maa	-9247
▁nooo	-9248
▁newcastle	-9249
▁bubb	-9250
▁nach	-9251
▁skipping	-9252
▁ree	-9253
▁spen	-9254
▁shelby	-9255
▁👛	-9256
▁gigg	-9257
▁spilled	-9258
uction	-9259
ott	-9260
▁jel	-9261
▁faking	-9262
▁waitin	-9263
▁smaller	-9264
track	-9265
▁waters	-9266
▁aun	-9267
▁invis	-9268
▁cheryl	-9269
▁subscribe	-9270
▁tig	-9271
▁gap	-9272
▁joc	-9273
▁clippers	-9274
▁launch	-9275
▁pis	-9276
water	-9277
▁crit	-9278
).	-9279
▁represent	-9280
▁speechless	-9281
▁practically	-9282
▁champs	-9283
▁👮	-9284
▁younow	-9285
▁influence	-9286
▁delayed	-9287
▁tara	-9288
yer	-9289
▁acade	-9290
▁choosing	-9291
▁dominican	-9292
athy	-9293
▁woooo	-9294
▁logic	-9295
iment	-9296
▁tracks	-9297
▁earrings	-9298
bish	-9299
▁hipp	-9300
▁overwhel	-9301
▁eurovision	-9302
▁yey	-9303
▁amaze	-9304
▁penny	-9305
▁thumbs	-9306
▁goddamn	-9307
▁victim	-9308
▁edition	-9309
hm	-9310
▁remain	-9311
▁navy	-9312
▁behave	-9313
▁led	-9314
▁sophie	-9315
alen	-9316
▁preview	-9317
▁surrounded	-9318
nee	-9319
▁pokemon	-9320
yu	-9321
▁essays	-9322
▁upp	-9323
because	-9324
▁sneeze	-9325
▁fx	-9326
▁skinned	-9327
ometry	-9328
▁presence	-9329
▁greetings	-9330
after	-9331
▁>>>>>>	-9332
going	-9333
!?!	-9334
▁boredom	-9335
▁receip	-9336
▁checks	-9337
▁envy	-9338
▁fixing	-9339
▁barley	-9340
▁rm	-9341
▁butts	-9342
▁shannon	-9343
block	-9344
▁caleb	-9345
▁document	-9346
▁views	-9347
>&	-9348
ceed	-9349
▁knife	-9350
▁roo	-9351
▁dex	-9352
▁nether	-9353
▁dimples	-9354
▁sup	-9355
▁heh	-9356
▁workers	-9357
fre	-9358
▁peas	-9359
▁callme	-9360
wan	-9361
▁((	-9362
better	-9363
▁scale	-9364
▁fir	-9365
▁dk	-9366
▁shorter	-9367
▁stu	-9368
▁everyones	-9369
tod	-9370
stit	-9371
▁recovery	-9372
▁kelsey	-9373
▁saints	-9374
▁warped	-9375
▁image	-9376
▁mascara	-9377
▁hips	-9378
▁fs	-9379
bear	-9380
▁meme	-9381
▁gooood	-9382
▁todd	-9383
eep	-9384
▁upper	-9385
▁regist	-9386
▁cnt	-9387
▁oni	-9388
▁mlrt	-9389
ables	-9390
▁votedemilovato	-9391
▁aggy	-9392
erv	-9393
tell	-9394
▁ease	-9395
▁casually	-9396
▁lololo	-9397
69	-9398
fying	-9399
▁runner	-9400
ifa	-9401
▁mute	-9402
▁mend	-9403
▁explode	-9404
▁throws	-9405
▁calend	-9406
▁strict	-9407
▁replaced	-9408
▁sweatshirt	-9409
▁var	-9410
▁mermaid	-9411
stre	-9412
▁bbc	-9413
hahah	-9414
▁inspiring	-9415
▁forth	-9416
▁🔨	-9417
▁ruby	-9418
▁exposed	-9419
▁stolen	-9420
si	-9421
▁stats	-9422
▁alph	-9423
▁janosk	-9424
▁@)	-9425
▁donate	-9426
kill	-9427
hahaha	-9428
▁woot	-9429
▁tomar	-9430
▁jal	-9431
▁jhene	-9432
▁tennes	-9433
cted	-9434
times	-9435
first	-9436
oaks	-9437
▁cba	-9438
▁leather	-9439
▁audition	-9440
▁pul	-9441
▁chili	-9442
▁flick	-9443
▁hatin	-9444
▁occas	-9445
▁graders	-9446
▁hardcore	-9447
▁snapchatting	-9448
istan	-9449
▁alhamdul	-9450
ibility	-9451
▁magaz	-9452
sun	-9453
▁cuties	-9454
▁sets	-9455
▁transformers	-9456
▁bea	-9457
erella	-9458
cool	-9459
▁yeen	-9460
▁sorta	-9461
▁🅰	-9462
▁ls	-9463
▁dublin	-9464
▁ene	-9465
▁trainer	-9466
dream	-9467
▁arrow	-9468
aaas	-9469
▁satan	-9470
▁🐔	-9471
fi	-9472
otic	-9473
daddy	-9474
kas	-9475
▁peak	-9476
▁candle	-9477
▁verse	-9478
▁disappear	-9479
▁broncos	-9480
▁inner	-9481
▁julian	-9482
▁colored	-9483
▁snuggle	-9484
▁🔵	-9485
▁deer	-9486
▁storms	-9487
65	-9488
oci	-9489
▁further	-9490
▁bleach	-9491
▁wilson	-9492
▁elephant	-9493
gium	-9494
▁standards	-9495
bound	-9496
agne	-9497
aska	-9498
▁garbage	-9499
ku	-9500
▁boyf	-9501
▁glory	-9502
brook	-9503
▁typo	-9504
▁reminis	-9505
▁crust	-9506
▁sweatpants	-9507
ista	-9508
▁protective	-9509
▁ont	-9510
▁tomato	-9511
▁emerg	-9512
$$	-9513
▁🍳	-9514
▁msg	-9515
.""	-9516
▁⛳	-9517
▁nay	-9518
▁tennessee	-9519
▁appearance	-9520
▁brownie	-9521
▁psh	-9522
cated	-9523
inky	-9524
▁reunite	-9525
▁baddie	-9526
▁toler	-9527
▁shin	-9528
gggg	-9529
▁babyy	-9530
▁tc	-9531
▁🔞	-9532
▁sadness	-9533
▁brianna	-9534
▁cringe	-9535
▁gb	-9536
ugged	-9537
▁overs	-9538
mers	-9539
ingle	-9540
about	-9541
eption	-9542
▁viol	-9543
▁debate	-9544
gt	-9545
aaaaay	-9546
▁scri	-9547
▁🐎	-9548
▁crank	-9549
abi	-9550
▁hollyoaks	-9551
▁🗽	-9552
▁meds	-9553
▁farted	-9554
▁nonsense	-9555
▁🎩	-9556
▁mwa	-9557
▁biscuits	-9558
ailand	-9559
▁porch	-9560
▁speaker	-9561
▁flipping	-9562
oming	-9563
🇩🇪	-9564
▁bach	-9565
▁clifford	-9566
▁unique	-9567
▁ilys	-9568
▁prov	-9569
▁permit	-9570
▁wig	-9571
▁blend	-9572
▁assuming	-9573
▁kc	-9574
▁gin	-9575
▁remote	-9576
▁uc	-9577
?!"	-9578
▁dull	-9579
▁holes	-9580
▁freest	-9581
▁cheerleader	-9582
▁beautif	-9583
non	-9584
iter	-9585
icles	-9586
▁mayo	-9587
▁chand	-9588
▁🍞	-9589
▁ques	-9590
▁cassie	-9591
▁lurk	-9592
▁ugirl	-9593
▁jean	-9594
▁lovato	-9595
▁bagel	-9596
▁twenty	-9597
▁distracted	-9598
▁lamb	-9599
▁shadow	-9600
▁jin	-9601
▁moody	-9602
▁grabbed	-9603
essed	-9604
▁repost	-9605
qq	-9606
▁fame	-9607
▁ciara	-9608
▁marie	-9609
▁td	-9610
iser	-9611
▁belieber	-9612
▁concerned	-9613
gos	-9614
▁🐋	-9615
▁anthem	-9616
▁bumping	-9617
▁suicide	-9618
▁jur	-9619
▁rag	-9620
▁ducks	-9621
▁unne	-9622
jamas	-9623
▁fcking	-9624
▁melted	-9625
▁iz	-9626
inary	-9627
mbre	-9628
▁spons	-9629
>/20	-9630
iry	-9631
▁candles	-9632
elo	-9633
▁hustle	-9634
▁oz	-9635
char	-9636
wk	-9637
▁foolish	-9638
▁tonite	-9639
▁gemini	-9640
▁unfair	-9641
▁👜	-9642
▁belgium	-9643
▁highway	-9644
▁journ	-9645
▁tramp	-9646
▁cocon	-9647
▁actions	-9648
▁filling	-9649
▁spotify	-9650
▁poorly	-9651
▁sever	-9652
▁terrified	-9653
▁urban	-9654
▁simon	-9655
▁seth	-9656
wd	-9657
▁meth	-9658
▁geometry	-9659
▁reds	-9660
▁manny	-9661
▁demand	-9662
▁trevor	-9663
▁reflection	-9664
▁burns	-9665
▁previous	-9666
▁bww	-9667
▁retain	-9668
▁scaring	-9669
had	-9670
shirts	-9671
wal	-9672
>/11	-9673
▁sniper	-9674
mus	-9675
ordie	-9676
▁capital	-9677
food	-9678
oline	-9679
ution	-9680
▁humid	-9681
▁compete	-9682
hehe	-9683
▁pancake	-9684
▁regretting	-9685
▁✅	-9686
lay	-9687
▁sah	-9688
▁existence	-9689
▁coworker	-9690
▁chad	-9691
healthy	-9692
▁devin	-9693
▁potential	-9694
▁tragic	-9695
somet	-9696
aken	-9697
▁thailand	-9698
black	-9699
▁cm	-9700
▁motion	-9701
▁someones	-9702
foot	-9703
▁gpa	-9704
▁beefing	-9705
arian	-9706
▁flexing	-9707
eria	-9708
▁granted	-9709
▁🌳	-9710
▁cricket	-9711
▁frost	-9712
▁tes	-9713
▁embr	-9714
▁blink	-9715
▁booth	-9716
▁ome	-9717
▁promises	-9718
▁priorities	-9719
▁tammy	-9720
▁overall	-9721
▁chocolates	-9722
▁transformation	-9723
urr	-9724
▁elf	-9725
▁polar	-9726
give	-9727
▁bop	-9728
▁appet	-9729
▁drained	-9730
▁squeeze	-9731
wy	-9732
long	-9733
▁trist	-9734
▁spoken	-9735
▁scholar	-9736
▁aal	-9737
olic	-9738
▁auth	-9739
▁trin	-9740
▁muh	-9741
▁centre	-9742
▁alfred	-9743
▁cries	-9744
▁humans	-9745
▁claiming	-9746
▁aux	-9747
▁paragraph	-9748
▁basement	-9749
pie	-9750
course	-9751
▁creature	-9752
▁bitching	-9753
▁sheet	-9754
▁mhm	-9755
▁whiskey	-9756
▁”.	-9757
▁invisible	-9758
▁aunty	-9759
▁worker	-9760
▁percent	-9761
▁khan	-9762
▁hurr	-9763
▁skipped	-9764
▁eatin	-9765
pelled	-9766
▁survived	-9767
▁sheesh	-9768
▁refreshing	-9769
▁applied	-9770
▁associ	-9771
▁miguel	-9772
▁ful	-9773
▁gray	-9774
▁dinah	-9775
▁combo	-9776
▁thts	-9777
▁spamming	-9778
▁bitchy	-9779
▁clouds	-9780
agan	-9781
▁discovered	-9782
▁charged	-9783
▁sessions	-9784
▁frm	-9785
▁leaked	-9786
▁johns	-9787
▁margar	-9788
▁revising	-9789
▁fv	-9790
▁backyard	-9791
chi	-9792
▁brut	-9793
▁midget	-9794
▁forcing	-9795
200	-9796
▁pum	-9797
nation	-9798
▁knocking	-9799
▁lawrence	-9800
▁boyz	-9801
▁applications	-9802
▁prick	-9803
▁soundtrack	-9804
▁options	-9805
▁insult	-9806
▁sue	-9807
apore	-9808
▁lyfe	-9809
his	-9810
▁dome	-9811
▁supportive	-9812
▁gel	-9813
▁peyton	-9814
▁vibr	-9815
▁squat	-9816
worth	-9817
▁supr	-9818
▁damon	-9819
▁crappy	-9820
"-	-9821
▁argh	-9822
@.	-9823
▁toss	-9824
▁flame	-9825
▁juniors	-9826
▁hc	-9827
▁motivated	-9828
67	-9829
mble	-9830
▁kidd	-9831
▁bp	-9832
▁studies	-9833
▁magn	-9834
dh	-9835
▁perman	-9836
▁nursing	-9837
forget	-9838
▁shah	-9839
▁hash	-9840
▁accuracy	-9841
▁alarms	-9842
▁thingy	-9843
▁ul	-9844
little	-9845
iao	-9846
▁tearing	-9847
▁thoe	-9848
bly	-9849
▁mega	-9850
▁cotton	-9851
▁savannah	-9852
nic	-9853
beaut	-9854
▁camila	-9855
▁devel	-9856
▁faa	-9857
abs	-9858
▁fckn	-9859
white	-9860
atics	-9861
▁mami	-9862
▁elliot	-9863
alu	-9864
atar	-9865
uper	-9866
▁melting	-9867
▁slop	-9868
▁({})	-9869
▁vice	-9870
/3	-9871
place	-9872
▁lighting	-9873
▁kirk	-9874
▁drown	-9875
▁wwe	-9876
▁wire	-9877
▁whitney	-9878
<<<<	-9879
▁amazon	-9880
▁ilysfm	-9881
▁tvd	-9882
▁therefore	-9883
▁anime	-9884
▁spencer	-9885
▁benz	-9886
▁paranoid	-9887
teen	-9888
▁hispanic	-9889
▁blair	-9890
▁pats	-9891
robe	-9892
▁awa	-9893
▁cigarettes	-9894
▁rider	-9895
mphis	-9896
fav	-9897
talk	-9898
▁shakes	-9899
hard	-9900
▁espn	-9901
▁concent	-9902
▁playa	-9903
col	-9904
▁diver	-9905
▁motha	-9906
osing	-9907
▁disappointing	-9908
belle	-9909
▁---	-9910
▁grim	-9911
”@	-9912
oooow	-9913
▁netherlands	-9914
▁snapping	-9915
▁waka	-9916
▁parker	-9917
▁reci	-9918
▁sixth	-9919
▁supernatural	-9920
▁earthquake	-9921
mir	-9922
▁ngl	-9923
▁omar	-9924
▁abuse	-9925
▁erm	-9926
▁fru	-9927
88	-9928
▁pinky	-9929
▁strike	-9930
▁wheres	-9931
▁pregnancy	-9932
▁fought	-9933
▁sofa	-9934
▁maroon	-9935
▁expectations	-9936
▁bj	-9937
▁signal	-9938
▁neighbours	-9939
▁ford	-9940
lines	-9941
▁👖	-9942
watching	-9943
▁jonathan	-9944
▁divor	-9945
▁waves	-9946
▁sophia	-9947
reat	-9948
inks	-9949
▁charm	-9950
▁dances	-9951
road	-9952
▁practicing	-9953
bag	-9954
▁jill	-9955
▁peed	-9956
months	-9957
▁kap	-9958
▁autumn	-9959
▁elbow	-9960
▁gown	-9961
▁intell	-9962
▁alcoholic	-9963
▁krispy	-9964
▁smiley	-9965
▁winners	-9966
▁families	-9967
▁tuesdays	-9968
▁singapore	-9969
▁upside	-9970
▁yak	-9971
▁rio	-9972
yea	-9973
▁dak	-9974
oustic	-9975
▁pencil	-9976
▁hairst	-9977
▁freaked	-9978
▁pedicure	-9979
▁stephanie	-9980
wee	-9981
▁meals	-9982
pson	-9983
▁derby	-9984
▁dil	-9985
▁cone	-9986
anti	-9987
▁grammys	-9988
▁bullet	-9989
ctions	-9990
▁bck	-9991
▁phill	-9992
▁breakdown	-9993
▁shaving	-9994
▁barca	-9995
▁booking	-9996
hand	-9997
▁reads	-9998
▁enemy	-9999
▁faced	-10000
▁crashed	-10001
▁repub	-10002
▁travis	-10003
▁insomnia	-10004
▁cinderella	-10005
▁bgt	-10006
▁gots	-10007
▁aggress	-10008
▁pon	-10009
▁👾	-10010
▁ivy	-10011
▁proposal	-10012
▁announcement	-10013
iya	-10014
▁zip	-10015
▁rebel	-10016
uuuuu	-10017
▁jungle	-10018
▁permission	-10019
▁meeee	-10020
ems	-10021
▁lml	-10022
cke	-10023
lucky	-10024
▁saturdays	-10025
▁🎨	-10026
▁cabin	-10027
haa	-10028
▁punish	-10029
▁referring	-10030
▁🚼	-10031
▁kev	-10032
▁virginity	-10033
jack	-10034
▁intellig	-10035
▁interrup	-10036
▁extreme	-10037
tem	-10038
▁bunches	-10039
▁muse	-10040
pret	-10041
▁nich	-10042
▁cases	-10043
▁lasts	-10044
▁seemed	-10045
lar	-10046
▁daughters	-10047
▁receiving	-10048
▁desire	-10049
-*	-10050
▁sou	-10051
▁develop	-10052
▁opinions	-10053
▁kardashians	-10054
▁okc	-10055
▁monkeys	-10056
▁harsh	-10057
rection	-10058
▁manziel	-10059
▁experienced	-10060
▁dos	-10061
▁maggie	-10062
▁carrying	-10063
pu	-10064
leigh	-10065
▁gamb	-10066
anced	-10067
▁tryouts	-10068
▁gor	-10069
▁memphis	-10070
trip	-10071
▁🐽	-10072
tho	-10073
▁include	-10074
appin	-10075
▁holds	-10076
stern	-10077
ftime	-10078
▁failure	-10079
▁coconut	-10080
▁whale	-10081
▁mentioning	-10082
▁painted	-10083
▁sneezing	-10084
▁marc	-10085
usion	-10086
▁listens	-10087
▁rica	-10088
▁spar	-10089
▁yikes	-10090
▁berry	-10091
?¿	-10092
kat	-10093
▁phat	-10094
▁spiders	-10095
▁🌠	-10096
▁reckon	-10097
▁hire	-10098
smh	-10099
▁sana	-10100
▁elevator	-10101
▁denver	-10102
▁korea	-10103
▁maid	-10104
▁lungs	-10105
▁nanny	-10106
wt	-10107
▁sims	-10108
▁suffer	-10109
▁beckham	-10110
▁teenage	-10111
burn	-10112
▁bethany	-10113
uay	-10114
▁geek	-10115
▁korean	-10116
▁rd	-10117
▁william	-10118
▁woop	-10119
▁alan	-10120
idk	-10121
berg	-10122
▁ahhh	-10123
▁sterling	-10124
uhu	-10125
ija	-10126
▁clingy	-10127
rad	-10128
▁lav	-10129
▁amor	-10130
▁rae	-10131
▁metal	-10132
gue	-10133
▁clay	-10134
▁periods	-10135
89	-10136
▁steelers	-10137
▁fufu	-10138
▁voices	-10139
cca	-10140
aling	-10141
▁lik	-10142
▁knight	-10143
arly	-10144
▁linc	-10145
▁disag	-10146
▁cape	-10147
▁rarely	-10148
▁microw	-10149
▁bgc	-10150
▁mck	-10151
arest	-10152
thats	-10153
▁🐭	-10154
▁🐺	-10155
shes	-10156
▁relief	-10157
▁feeding	-10158
bang	-10159
▁diff	-10160
▁hugged	-10161
▁kmsl	-10162
▁kindness	-10163
ran	-10164
father	-10165
▁bothers	-10166
▁packers	-10167
▁dexter	-10168
▁hearted	-10169
▁nashs	-10170
▁gord	-10171
▁intro	-10172
▁sneez	-10173
shut	-10174
▁nag	-10175
zzie	-10176
▁hb	-10177
▁grinding	-10178
▁rounds	-10179
▁ct	-10180
ahhh	-10181
▁rib	-10182
▁rumors	-10183
▁tyga	-10184
▁lions	-10185
▁🅱	-10186
▁flavor	-10187
▁hugging	-10188
▁unnecessary	-10189
▁kitt	-10190
▁parks	-10191
▁dragging	-10192
▁rising	-10193
▁kush	-10194
▁noticing	-10195
▁disappointment	-10196
▁chir	-10197
▁instru	-10198
hit	-10199
▁sna	-10200
▁cad	-10201
▁several	-10202
▁whys	-10203
▁officer	-10204
▁emergency	-10205
▁stew	-10206
2,	-10207
▁‍	-10208
lent	-10209
▁tempt	-10210
aus	-10211
▁ofc	-10212
▁sweaty	-10213
▁channing	-10214
▁facetiming	-10215
▁clin	-10216
▁quicker	-10217
owa	-10218
▁gma	-10219
chie	-10220
▁kw	-10221
>0	-10222
wide	-10223
▁hoot	-10224
▁kai	-10225
▁diary	-10226
▁muffin	-10227
▁alhamdulillah	-10228
▁lifting	-10229
▁damnn	-10230
▁jawn	-10231
written	-10232
▁earned	-10233
▁ral	-10234
itz	-10235
▁hiring	-10236
▁nighter	-10237
▁cardio	-10238
goals	-10239
▁👺	-10240
▁knowledge	-10241
▁ahhhh	-10242
▁equal	-10243
▁damnit	-10244
cope	-10245
▁loooove	-10246
▁yur	-10247
▁guts	-10248
▁wink	-10249
▁sunr	-10250
▁medical	-10251
▁boa	-10252
▁kenned	-10253
▁concentr	-10254
▁demon	-10255
43	-10256
▁aaliyah	-10257
▁biggie	-10258
wom	-10259
▁dickhead	-10260
▁wass	-10261
▁blizz	-10262
▁conclus	-10263
oml	-10264
▁sounding	-10265
▁modern	-10266
▁ave	-10267
▁improve	-10268
gang	-10269
▁jamaican	-10270
▁tweeps	-10271
▁purchase	-10272
▁pist	-10273
aneous	-10274
▁jealousy	-10275
▁accomplish	-10276
▁lmf	-10277
▁allat	-10278
story	-10279
▁drain	-10280
▁idols	-10281
hl	-10282
🇪🇸	-10283
▁sack	-10284
▁dissing	-10285
state	-10286
▁products	-10287
▁insan	-10288
▁mighty	-10289
ghan	-10290
▁diana	-10291
▁hawt	-10292
▁apples	-10293
▁🍖	-10294
team	-10295
,.	-10296
▁jah	-10297
▁filip	-10298
▁cory	-10299
▁cram	-10300
▁halftime	-10301
▁cit	-10302
▁nov	-10303
▁mamas	-10304
▁wardrobe	-10305
▁sock	-10306
ustin	-10307
▁techno	-10308
57	-10309
▁tort	-10310
lore	-10311
▁ultra	-10312
andra	-10313
quil	-10314
▁fsu	-10315
▁quan	-10316
▁felicia	-10317
▁cartoon	-10318
▁muchh	-10319
mia	-10320
▁noodle	-10321
▁favourites	-10322
▁nomo	-10323
▁marley	-10324
▁dominos	-10325
▁coinc	-10326
▁novel	-10327
▁attacked	-10328
rett	-10329
▁monsters	-10330
lake	-10331
▁jacks	-10332
▁attending	-10333
▁rim	-10334
▁tiring	-10335
▁lashes	-10336
▁interact	-10337
asa	-10338
lll	-10339
▁pillows	-10340
▁depart	-10341
▁🔓	-10342
izes	-10343
▁conditioning	-10344
▁magazine	-10345
56	-10346
▁script	-10347
▁sloppy	-10348
▁romance	-10349
odi	-10350
▁hobb	-10351
▁forsure	-10352
▁microwave	-10353
▁completed	-10354
oln	-10355
▁lax	-10356
▁ecu	-10357
▁devast	-10358
▁switching	-10359
▁rita	-10360
▁filming	-10361
▁sneakers	-10362
▁randy	-10363
▁superman	-10364
▁girlie	-10365
oto	-10366
▁bcs	-10367
▁lucas	-10368
▁quince	-10369
sto	-10370
▁pb	-10371
war	-10372
akin	-10373
▁latte	-10374
▁smiled	-10375
▁cocaine	-10376
▁dismiss	-10377
▁vom	-10378
▁diva	-10379
▁brunch	-10380
▁💬	-10381
▁hed	-10382
bruh	-10383
▁nb	-10384
▁jewel	-10385
mans	-10386
▁kah	-10387
▁refs	-10388
41	-10389
▁zen	-10390
▁groceries	-10391
▁whist	-10392
59	-10393
prom	-10394
▁desig	-10395
▁slipped	-10396
▁britney	-10397
icorn	-10398
▁shep	-10399
▁ganna	-10400
▁👱	-10401
cin	-10402
▁bian	-10403
▁bananas	-10404
▁shocking	-10405
imma	-10406
▁urgh	-10407
sticks	-10408
▁rappers	-10409
▁wingstop	-10410
▁tripped	-10411
▁md	-10412
▁included	-10413
▁brac	-10414
abeth	-10415
▁fosters	-10416
▁phr	-10417
▁banger	-10418
▁trucks	-10419
▁russell	-10420
hhhhh	-10421
craft	-10422
▁ketch	-10423
▁⌚	-10424
▁toys	-10425
▁responsible	-10426
▁whites	-10427
▁dt	-10428
42	-10429
▁guessed	-10430
▁motherfucker	-10431
does	-10432
▁halls	-10433
▁linda	-10434
▁notif	-10435
▁lace	-10436
▁aside	-10437
▁melts	-10438
▁flipped	-10439
▁kathryn	-10440
po	-10441
▁athlete	-10442
▁munchies	-10443
▁awhh	-10444
▁cyn	-10445
▁yun	-10446
great	-10447
▁kale	-10448
▁despite	-10449
▁roman	-10450
lem	-10451
▁typa	-10452
▁etern	-10453
"""	-10454
alsa	-10455
▁banned	-10456
▁divergent	-10457
▁tatum	-10458
▁injury	-10459
▁bradley	-10460
▁chey	-10461
▁mustang	-10462
▁muah	-10463
▁urself	-10464
▁beloved	-10465
▁jamal	-10466
▁explaining	-10467
▁teenager	-10468
▁reference	-10469
▁unhealthy	-10470
▁🌽	-10471
▁douche	-10472
fat	-10473
proof	-10474
▁rescue	-10475
>?!	-10476
aiah	-10477
tails	-10478
▁village	-10479
▁gat	-10480
▁mwah	-10481
▁fina	-10482
▁🆘	-10483
▁basis	-10484
▁clubs	-10485
enger	-10486
▁soooo	-10487
gate	-10488
▁twatching	-10489
▁sweep	-10490
▁totes	-10491
achi	-10492
▁keyboard	-10493
▁.!	-10494
▁abit	-10495
▁puke	-10496
▁hazel	-10497
awk	-10498
▁cuteness	-10499
▁jamaica	-10500
▁aiko	-10501
▁rated	-10502
▁classroom	-10503
▁scroll	-10504
▁calendar	-10505
ativity	-10506
▁clowns	-10507
▁talaga	-10508
▁fyi	-10509
▁rocket	-10510
▁chillen	-10511
▁shouldnt	-10512
▁tup	-10513
▁scholarship	-10514
▁weekly	-10515
▁sprint	-10516
▁$$	-10517
▁fella	-10518
▁alice	-10519
mal	-10520
▁stack	-10521
▁troll	-10522
▁bdubs	-10523
▁jammin	-10524
▁pickles	-10525
▁soml	-10526
▁deciding	-10527
▁looooool	-10528
▁🍄	-10529
▁highlights	-10530
meal	-10531
▁selamat	-10532
▁destroyed	-10533
▁lyin	-10534
▁reese	-10535
>°	-10536
▁laughin	-10537
▁muthafuck	-10538
▁jd	-10539
▁kry	-10540
▁theo	-10541
▁drool	-10542
▁grabbing	-10543
▁stamp	-10544
▁debut	-10545
▁friendships	-10546
▁fluffy	-10547
▁sag	-10548
▁guna	-10549
▁ringing	-10550
▁saint	-10551
▁accepting	-10552
▁rubbish	-10553
▁alicia	-10554
▁louder	-10555
▁disturb	-10556
excited	-10557
▁toni	-10558
▁rabbit	-10559
▁ballin	-10560
▁heartbreak	-10561
▁believed	-10562
▁derrick	-10563
▁giv	-10564
▁creek	-10565
zed	-10566
▁tix	-10567
▁jeez	-10568
▁lincoln	-10569
▁sliding	-10570
▁ethan	-10571
▁bullying	-10572
▁damage	-10573
▁religion	-10574
▁steam	-10575
▁🆒	-10576
eda	-10577
▁mickey	-10578
xy	-10579
▁muff	-10580
etown	-10581
▁titty	-10582
▁luckily	-10583
fila	-10584
nuts	-10585
▁urs	-10586
▁retire	-10587
▁suppor	-10588
▁</3	-10589
▁canny	-10590
▁finn	-10591
▁reward	-10592
▁neon	-10593
▁gaz	-10594
seys	-10595
aire	-10596
▁bou	-10597
▁canadian	-10598
▁thong	-10599
▁parked	-10600
▁🚲	-10601
▁confirmed	-10602
▁iknow	-10603
▁virt	-10604
▁comed	-10605
▁shell	-10606
▁zack	-10607
▁ding	-10608
mat	-10609
▁pj	-10610
▁rash	-10611
▁fasho	-10612
▁crawford	-10613
▁refe	-10614
▁aunts	-10615
▁kindly	-10616
aton	-10617
gypt	-10618
▁value	-10619
▁wheels	-10620
▁pete	-10621
▁membership	-10622
▁freck	-10623
▁okayy	-10624
▁ramadan	-10625
▁serving	-10626
urda	-10627
▁dodge	-10628
point	-10629
▁foundation	-10630
▁wht	-10631
▁hypoc	-10632
▁gerr	-10633
▁newest	-10634
▁suitcase	-10635
▁caroline	-10636
▁yeaa	-10637
▁oklah	-10638
▁impression	-10639
▁ridiculously	-10640
kel	-10641
▁inspirational	-10642
▁directioner	-10643
▁remove	-10644
▁actress	-10645
isters	-10646
▁volunteer	-10647
▁champagne	-10648
▁🎡	-10649
▁awee	-10650
▁laz	-10651
▁aries	-10652
▁heather	-10653
▁suffering	-10654
▁wade	-10655
▁editing	-10656
▁speakers	-10657
uut	-10658
▁era	-10659
▁wallah	-10660
▁popeyes	-10661
▁🚓	-10662
babe	-10663
▁windy	-10664
▁⚠	-10665
▁benefits	-10666
▁keke	-10667
▁sits	-10668
▁columbus	-10669
▁reggie	-10670
▁soundcloud	-10671
lam	-10672
▁standard	-10673
▁clash	-10674
▁orders	-10675
▁treatment	-10676
▁garlic	-10677
rif	-10678
chan	-10679
▁joel	-10680
▁streaming	-10681
▁spotted	-10682
▁eld	-10683
▁ona	-10684
▁sg	-10685
▁kin	-10686
▁slacking	-10687
▁arguments	-10688
▁mocking	-10689
▁grammy	-10690
▁becca	-10691
▁lime	-10692
▁grape	-10693
▁geordie	-10694
money	-10695
▁crushing	-10696
▁gogg	-10697
▁condoms	-10698
▁eliz	-10699
endo	-10700
▁overthinking	-10701
66	-10702
▁dood	-10703
rl	-10704
activ	-10705
▁diamonds	-10706
▁voicemail	-10707
▁beautifull	-10708
▁shh	-10709
▁length	-10710
ilities	-10711
▁hd	-10712
▁lawn	-10713
▁lamar	-10714
▁whooped	-10715
▁nuh	-10716
▁scoo	-10717
▁committed	-10718
▁yor	-10719
▁prin	-10720
▁creepin	-10721
aaaan	-10722
▁tires	-10723
▁struggles	-10724
mah	-10725
▁ramen	-10726
▁unicorn	-10727
▁exchange	-10728
▁rasp	-10729
▁conce	-10730
▁acknow	-10731
▁runnin	-10732
▁whisper	-10733
▁dami	-10734
▁fare	-10735
▁blu	-10736
▁bib	-10737
▁disagree	-10738
suit	-10739
bri	-10740
▁kt	-10741
▁photography	-10742
▁casino	-10743
▁internship	-10744
▁”!	-10745
done	-10746
▁lance	-10747
▁pcb	-10748
▁cardiff	-10749
▁photoshoot	-10750
omies	-10751
▁activity	-10752
▁biscuit	-10753
▁responding	-10754
▁$50	-10755
▁fellas	-10756
street	-10757
▁abc	-10758
rain	-10759
yson	-10760
▁interviews	-10761
▁egypt	-10762
▁pakistan	-10763
▁smallest	-10764
itor	-10765
▁mp	-10766
▁khloe	-10767
▁incre	-10768
▁entering	-10769
▁counter	-10770
urus	-10771
▁gna	-10772
▁memes	-10773
▁ralph	-10774
▁tigers	-10775
rry	-10776
▁pitts	-10777
▁pulls	-10778
▁stall	-10779
▁promo	-10780
▁pinterest	-10781
▁niggga	-10782
▁terry	-10783
▁bandwag	-10784
▁handwritten	-10785
bute	-10786
▁ideal	-10787
▁ketchup	-10788
▁davis	-10789
▁avo	-10790
▁lifes	-10791
▁forevermore	-10792
▁packet	-10793
▁worthy	-10794
ondition	-10795
▁locks	-10796
▁🐮	-10797
▁ax	-10798
bird	-10799
▁pg	-10800
dead	-10801
▁squirrel	-10802
▁twitcon	-10803
▁scout	-10804
▁infection	-10805
▁yaas	-10806
▁alfredo	-10807
ahhhh	-10808
▁tink	-10809
▁passport	-10810
▁reminiscing	-10811
▁unp	-10812
▁gan	-10813
▁aggressive	-10814
▁lul	-10815
▁holland	-10816
▁retail	-10817
▁powerful	-10818
▁dump	-10819
▁dete	-10820
▁danced	-10821
▁soz	-10822
▁converse	-10823
▁refollow	-10824
▁hail	-10825
▁devon	-10826
eland	-10827
▁loan	-10828
▁handy	-10829
▁★	-10830
▁movement	-10831
▁fist	-10832
itivity	-10833
▁$1	-10834
ffff	-10835
▁district	-10836
▁	-10837
▁scrappy	-10838
▁fkn	-10839
▁trim	-10840
rely	-10841
▁downloading	-10842
▁ronnie	-10843
▁tshirt	-10844
▁oklahoma	-10845
▁confession	-10846
elyn	-10847
▁oy	-10848
followme	-10849
▁driveway	-10850
▁matty	-10851
▁waitress	-10852
▁tmm	-10853
▁🐦	-10854
▁texter	-10855
▁goooood	-10856
ivid	-10857
▁hows	-10858
▁inapp	-10859
▁rooting	-10860
▁uncles	-10861
▁pattern	-10862
▁fier	-10863
bys	-10864
aah	-10865
▁ego	-10866
▁acoustic	-10867
▁slayed	-10868
▁jv	-10869
▁calories	-10870
▁cigarette	-10871
▁onna	-10872
▁kristen	-10873
▁safely	-10874
nice	-10875
atory	-10876
▁scarf	-10877
kiss	-10878
▁russian	-10879
▁fwu	-10880
weeks	-10881
▁audi	-10882
▁dmv	-10883
▁sleepin	-10884
▁dessert	-10885
▁insh	-10886
▁kittens	-10887
▁aching	-10888
▁nee	-10889
ilight	-10890
▁coaster	-10891
▁🔌	-10892
▁🍣	-10893
▁🎭	-10894
▁lyric	-10895
sho	-10896
▁aus	-10897
▁eeee	-10898
▁consists	-10899
▁anon	-10900
▁girlies	-10901
▁dl	-10902
▁seek	-10903
▁cp	-10904
alea	-10905
aign	-10906
high	-10907
▁sexually	-10908
▁🐨	-10909
▁matte	-10910
▁gome	-10911
▁itchy	-10912
▁republic	-10913
feel	-10914
▁models	-10915
▁twitpic	-10916
mu	-10917
▁mbf	-10918
▁isaac	-10919
space	-10920
▁hoodies	-10921
▁ruthless	-10922
▁expression	-10923
▁upsetting	-10924
▁tk	-10925
97	-10926
▁helpful	-10927
▁bonus	-10928
▁puberty	-10929
▁syn	-10930
esha	-10931
▁kermit	-10932
▁bangs	-10933
▁ella	-10934
▁welcom	-10935
▁clueless	-10936
▁hick	-10937
▁cunts	-10938
▁carly	-10939
▁cantwait	-10940
▁dive	-10941
bowl	-10942
lon	-10943
rac	-10944
try	-10945
▁🛀	-10946
▁sketch	-10947
▁annabelle	-10948
▁thai	-10949
▁🏉	-10950
▁tanner	-10951
▁scrub	-10952
▁drawn	-10953
▁raz	-10954
▁mainly	-10955
▁morn	-10956
fts	-10957
▁hayley	-10958
▁continues	-10959
▁picky	-10960
agger	-10961
inging	-10962
▁medium	-10963
▁payed	-10964
▁believing	-10965
▁lifted	-10966
chea	-10967
▁angie	-10968
lene	-10969
▁bruised	-10970
▁patt	-10971
esse	-10972
▁applying	-10973
▁🏂	-10974
▁eagle	-10975
▁quoting	-10976
chick	-10977
▁yaaay	-10978
▁thanking	-10979
step	-10980
▁entirely	-10981
▁independent	-10982
▁nj	-10983
▁rand	-10984
▁slipping	-10985
▁constr	-10986
▁alway	-10987
▁returns	-10988
▁arrange	-10989
▁supply	-10990
▁charity	-10991
▁separate	-10992
hai	-10993
▁appetite	-10994
lena	-10995
▁dayum	-10996
58	-10997
▁rican	-10998
▁fah	-10999
▁invented	-11000
might	-11001
hill	-11002
▁puttin	-11003
▁patty	-11004
▁weights	-11005
▁correctly	-11006
▁blocks	-11007
▁rewind	-11008
moon	-11009
▁twilight	-11010
bz	-11011
▁amin	-11012
▁alien	-11013
▁hml	-11014
▁individ	-11015
ograph	-11016
▁gummy	-11017
▁📞	-11018
▁gras	-11019
▁moma	-11020
cher	-11021
▁thursdays	-11022
▁ofcourse	-11023
▁cedar	-11024
rena	-11025
▁indiana	-11026
▁horri	-11027
▁western	-11028
anne	-11029
▁tasty	-11030
weekend	-11031
▁isaiah	-11032
rez	-11033
▁toby	-11034
▁diab	-11035
▁downs	-11036
▁wednesdays	-11037
▁roasting	-11038
▁brides	-11039
▁studied	-11040
?!?!?	-11041
▁pjs	-11042
▁motorcy	-11043
▁awwh	-11044
▁overnight	-11045
▁marissa	-11046
bot	-11047
▁ingat	-11048
▁skill	-11049
bud	-11050
▁albums	-11051
▁murdered	-11052
▁photographer	-11053
awa	-11054
▁ea	-11055
▁ohmygod	-11056
▁management	-11057
▁tupac	-11058
▁kors	-11059
▁grip	-11060
▁uber	-11061
▁shipping	-11062
!)	-11063
amer	-11064
▁saa	-11065
▁hobby	-11066
▁mommas	-11067
▁sabrina	-11068
▁ds	-11069
iri	-11070
▁sweety	-11071
▁taxes	-11072
▁engagement	-11073
▁entertained	-11074
▁nigeria	-11075
▁kennedy	-11076
▁ceiling	-11077
▁stoned	-11078
▁kier	-11079
▁kreme	-11080
soon	-11081
▁”!!	-11082
inton	-11083
▁whyy	-11084
▁<<<<<	-11085
▁cath	-11086
▁insid	-11087
▁sweden	-11088
avo	-11089
nold	-11090
▁lilly	-11091
▁myles	-11092
▁gaf	-11093
▁airpl	-11094
▁cave	-11095
▁accents	-11096
▁sickness	-11097
▁summertime	-11098
▁blizzard	-11099
▁regrets	-11100
"!	-11101
▁vision	-11102
iki	-11103
▁bliss	-11104
▁nshit	-11105
▁cate	-11106
▁chor	-11107
▁desperately	-11108
utes	-11109
▁luckiest	-11110
▁gro	-11111
▁shouting	-11112
▁🍛	-11113
▁treasure	-11114
▁chanel	-11115
▁👔	-11116
▁itch	-11117
igans	-11118
▁braid	-11119
▁lounge	-11120
▁scorpio	-11121
▁tube	-11122
▁shove	-11123
▁attitudes	-11124
▁explore	-11125
▁premier	-11126
rier	-11127
▁russia	-11128
▁powers	-11129
▁tasted	-11130
▁yhu	-11131
▁maker	-11132
▁slur	-11133
▁chunk	-11134
▁eyed	-11135
nesia	-11136
▁allison	-11137
▁jt	-11138
funny	-11139
▁umbre	-11140
▁walkin	-11141
shot	-11142
▁tent	-11143
▁lis	-11144
▁coaches	-11145
sweet	-11146
▁pens	-11147
▁hailey	-11148
▁whatso	-11149
▁mansion	-11150
▁youll	-11151
▁cheetah	-11152
▁💺	-11153
illas	-11154
▁gatorade	-11155
▁pix	-11156
▁freestyle	-11157
iers	-11158
▁anit	-11159
▁fatt	-11160
uto	-11161
izer	-11162
▁caffe	-11163
▁latin	-11164
ryl	-11165
▁punching	-11166
▁crushed	-11167
▁dairy	-11168
▁oat	-11169
▁fricken	-11170
▁charming	-11171
▁knot	-11172
▁snick	-11173
▁skittle	-11174
▁fron	-11175
▁supper	-11176
▁elizabeth	-11177
▁adopt	-11178
atement	-11179
▁fudge	-11180
▁homo	-11181
things	-11182
paper	-11183
▁raped	-11184
▁jax	-11185
▁climb	-11186
▁cham	-11187
▁spreading	-11188
bles	-11189
von	-11190
ahahah	-11191
▁announced	-11192
▁pineapples	-11193
▁brains	-11194
▁maryland	-11195
▁geeked	-11196
▁dew	-11197
▁bubba	-11198
▁caf	-11199
▁livin	-11200
▁salsa	-11201
▁siri	-11202
▁whaaaat	-11203
▁lmaooo	-11204
▁pisces	-11205
▁keen	-11206
▁approve	-11207
▁understatement	-11208
▁poet	-11209
▁sow	-11210
▁🚣	-11211
cover	-11212
▁dyed	-11213
▁hometown	-11214
▁syrup	-11215
▁worship	-11216
▁coy	-11217
▁bride	-11218
▁umbrella	-11219
▁slid	-11220
▁cramp	-11221
▁procrastinating	-11222
aco	-11223
▁depend	-11224
▁stepping	-11225
▁whatsoever	-11226
▁lv	-11227
▁lola	-11228
▁describes	-11229
▁kels	-11230
▁royce	-11231
▁bryant	-11232
these	-11233
ggg	-11234
▁overtime	-11235
▁👢	-11236
▁$4	-11237
▁lynch	-11238
▁grat	-11239
▁scheduled	-11240
▁packs	-11241
▁insidious	-11242
fol	-11243
hair	-11244
▁allie	-11245
▁global	-11246
▁crackers	-11247
imum	-11248
▁somewhat	-11249
▁uniforms	-11250
▁tweetin	-11251
jac	-11252
▁iwant	-11253
▁safety	-11254
bbie	-11255
▁tradition	-11256
▁rocked	-11257
▁bama	-11258
▁thankss	-11259
▁freezer	-11260
▁carried	-11261
which	-11262
68	-11263
rance	-11264
▁augustus	-11265
▁kickback	-11266
77	-11267
music	-11268
▁ist	-11269
▁deactiv	-11270
▁moaning	-11271
▁disturbing	-11272
▁iowa	-11273
▁mountains	-11274
▁fangirling	-11275
aux	-11276
iven	-11277
jd	-11278
▁pp	-11279
izon	-11280
▁resolution	-11281
▁batch	-11282
▁highest	-11283
▁install	-11284
▁hind	-11285
▁starter	-11286
eta	-11287
count	-11288
▁spont	-11289
▁lope	-11290
▁louisiana	-11291
▁ravens	-11292
▁served	-11293
▁pom	-11294
izzle	-11295
bone	-11296
▁accounting	-11297
▁surprisingly	-11298
apper	-11299
▁oscars	-11300
▁janoskians	-11301
▁bxt	-11302
▁wud	-11303
▁collage	-11304
▁nal	-11305
▁happpp	-11306
▁yeeee	-11307
▁kenn	-11308
▁mutuals	-11309
▁kia	-11310
bridge	-11311
idas	-11312
▁⛺	-11313
logne	-11314
zilla	-11315
▁kita	-11316
▁<<<<<<	-11317
▁filthy	-11318
▁🐊	-11319
umed	-11320
▁shud	-11321
▁evans	-11322
▁aer	-11323
bean	-11324
▁celeb	-11325
▁henny	-11326
▁nause	-11327
▁brow	-11328
▁biz	-11329
▁jab	-11330
▁snoo	-11331
▁wala	-11332
▁haz	-11333
▁promote	-11334
▁crawfish	-11335
▁pickle	-11336
▁lineup	-11337
nob	-11338
▁slaying	-11339
istic	-11340
▁victory	-11341
▁pajamas	-11342
kind	-11343
▁awes	-11344
."”	-11345
▁sniff	-11346
▁funk	-11347
▁phar	-11348
▁azalea	-11349
dre	-11350
▁shops	-11351
▁dana	-11352
▁mahone	-11353
▁uncondition	-11354
vm	-11355
bumps	-11356
▁goon	-11357
▁instant	-11358
roe	-11359
▁pity	-11360
▁rockets	-11361
▁gloves	-11362
▁leslie	-11363
?<	-11364
▁inappropriate	-11365
▁gomez	-11366
▁gerrard	-11367
▁tables	-11368
”.	-11369
▁chos	-11370
▁tomm	-11371
▁loop	-11372
▁trill	-11373
▁brooks	-11374
▁lottery	-11375
▁bmw	-11376
adas	-11377
▁solve	-11378
▁fckin	-11379
▁slang	-11380
oz	-11381
▁embrace	-11382
▁oliver	-11383
▁infinity	-11384
?)	-11385
▁ces	-11386
▁metro	-11387
▁salv	-11388
▁sluts	-11389
▁$15	-11390
child	-11391
▁plies	-11392
▁hiking	-11393
▁gem	-11394
eto	-11395
▁shawns	-11396
▁shaq	-11397
▁vma	-11398
▁🍋	-11399
▁beb	-11400
▁inviting	-11401
amin	-11402
▁desert	-11403
▁pearl	-11404
▁myr	-11405
books	-11406
▁agent	-11407
fight	-11408
▁finan	-11409
goodnight	-11410
▁ode	-11411
▁crossing	-11412
▁tweaking	-11413
▁sebast	-11414
▁cravings	-11415
▁dale	-11416
▁programme	-11417
fb	-11418
mons	-11419
▁overrated	-11420
▁flops	-11421
▁nancy	-11422
▁cologne	-11423
hea	-11424
▁moore	-11425
▁kansas	-11426
▁karaoke	-11427
▁mow	-11428
▁hurrican	-11429
ugh	-11430
lence	-11431
▁khalifa	-11432
▁spinning	-11433
▁introduce	-11434
▁gle	-11435
▁outchea	-11436
▁guarantee	-11437
▁cherish	-11438
,000	-11439
uuuh	-11440
?"@:	-11441
▁strap	-11442
▁inspire	-11443
▁rehearsal	-11444
ourt	-11445
▁dogg	-11446
▁minor	-11447
▁tattooed	-11448
▁harvey	-11449
▁cro	-11450
▁ferg	-11451
▁balloons	-11452
hab	-11453
guys	-11454
enix	-11455
rock	-11456
assic	-11457
▁kuya	-11458
▁ariel	-11459
▁lorde	-11460
▁sane	-11461
▁ling	-11462
▁🎋	-11463
▁pd	-11464
▁mona	-11465
▁towie	-11466
▁pierce	-11467
consin	-11468
▁trapped	-11469
▁terror	-11470
▁splash	-11471
▁gentleman	-11472
▁suggestions	-11473
hero	-11474
▁para	-11475
iti	-11476
▁anniv	-11477
▁australian	-11478
▁grease	-11479
▁arts	-11480
▁breh	-11481
▁waiter	-11482
▁gather	-11483
▁odds	-11484
zza	-11485
▁loaded	-11486
▁offense	-11487
▁taurus	-11488
▁spoiling	-11489
▁shamp	-11490
▁athletic	-11491
▁bianca	-11492
▁housew	-11493
▁penguin	-11494
loy	-11495
▁float	-11496
▁chels	-11497
▁purpos	-11498
▁zombies	-11499
▁ric	-11500
▁warrior	-11501
▁wheeling	-11502
▁kart	-11503
▁reallll	-11504
▁pronounce	-11505
▁disappeared	-11506
▁budget	-11507
▁shaped	-11508
▁snakes	-11509
▁jays	-11510
▁graduates	-11511
▁teammates	-11512
cre	-11513
▁verified	-11514
▁pudding	-11515
gant	-11516
hor	-11517
boarding	-11518
▁shuffle	-11519
▁trains	-11520
▁alexa	-11521
▁shmurda	-11522
vior	-11523
austin	-11524
▁affection	-11525
▁jerseys	-11526
▁merced	-11527
▁travels	-11528
▁avatar	-11529
▁husky	-11530
95	-11531
▁🐵	-11532
▁ava	-11533
▁souls	-11534
▁server	-11535
▁princip	-11536
▁graham	-11537
▁$200	-11538
▁credits	-11539
welcome	-11540
▁pleasant	-11541
▁rubber	-11542
jan	-11543
▁portland	-11544
▁mau	-11545
▁panama	-11546
▁twitters	-11547
▁ark	-11548
today	-11549
▁logo	-11550
▁nooooo	-11551
▁fern	-11552
▁addicting	-11553
▁tod	-11554
▁beds	-11555
▁pinch	-11556
▁specific	-11557
ampton	-11558
▁amnesia	-11559
▁spect	-11560
▁digging	-11561
▁norman	-11562
>>>>>	-11563
▁hidden	-11564
atherine	-11565
▁rhy	-11566
▁spontaneous	-11567
known	-11568
▁pets	-11569
▁villa	-11570
▁uptown	-11571
▁nigha	-11572
▁suite	-11573
▁(@)	-11574
▁submit	-11575
▁penalty	-11576
strong	-11577
▁leading	-11578
▁gina	-11579
▁recall	-11580
▁bottoms	-11581
▁placement	-11582
▁croc	-11583
▁sire	-11584
▁tagging	-11585
▁comic	-11586
▁slack	-11587
▁raff	-11588
▁dizzy	-11589
▁nia	-11590
▁sed	-11591
▁murray	-11592
▁telly	-11593
▁groo	-11594
▁lightskins	-11595
weight	-11596
▁snowman	-11597
turn	-11598
gee	-11599
iously	-11600
▁francisco	-11601
▁applebee	-11602
▁appt	-11603
▁unit	-11604
▁casual	-11605
▁hairy	-11606
fans	-11607
mr	-11608
wall	-11609
▁wisconsin	-11610
▁pitbull	-11611
▁cx	-11612
odie	-11613
▁cinco	-11614
▁vocab	-11615
▁shat	-11616
▁saman	-11617
▁geography	-11618
ux	-11619
▁cage	-11620
▁maga	-11621
▁goosebumps	-11622
favor	-11623
▁ident	-11624
▁bw	-11625
▁pigs	-11626
cies	-11627
▁grave	-11628
▁shampoo	-11629
▁`	-11630
juana	-11631
bitches	-11632
pen	-11633
▁crawling	-11634
▁earn	-11635
▁banquet	-11636
▁askin	-11637
▁buffet	-11638
▁partners	-11639
ben	-11640
▁tampa	-11641
▁utd	-11642
▁wales	-11643
▁yaaaaas	-11644
▁avery	-11645
▁jak	-11646
▁baba	-11647
▁kell	-11648
▁costumes	-11649
▁rebe	-11650
cats	-11651
▁tama	-11652
▁nigerian	-11653
▁comb	-11654
▁whack	-11655
▁havnt	-11656
▁hopeless	-11657
96	-11658
▁madi	-11659
▁lames	-11660
▁banks	-11661
ensions	-11662
▁expelled	-11663
▁solange	-11664
▁gov	-11665
▁specially	-11666
▁svu	-11667
▁obvi	-11668
▁predict	-11669
▁philos	-11670
▁exception	-11671
ulation	-11672
▁melo	-11673
▁collins	-11674
▁ignores	-11675
▁appropriate	-11676
islife	-11677
▁marshall	-11678
▁marke	-11679
▁licking	-11680
▁sebastian	-11681
▁spoilt	-11682
▁jkjk	-11683
▁sneezed	-11684
▁fuuu	-11685
▁olympics	-11686
▁coincidence	-11687
vir	-11688
▁signific	-11689
cry	-11690
3.	-11691
▁turtles	-11692
▁dork	-11693
▁homegirl	-11694
ficent	-11695
▁bihh	-11696
▁whaaaa	-11697
▁designer	-11698
▁🍨	-11699
▁among	-11700
▁mou	-11701
▁catches	-11702
▁restroom	-11703
▁shirtless	-11704
▁rely	-11705
▁nephews	-11706
▁overly	-11707
otch	-11708
▁ike	-11709
▁batter	-11710
▁cloudy	-11711
▁brighter	-11712
▁jurassic	-11713
▁maddy	-11714
▁🍚	-11715
xton	-11716
▁tis	-11717
▁callmecam	-11718
▁swea	-11719
▁tore	-11720
▁gaining	-11721
▁spiderman	-11722
▁discussion	-11723
▁litter	-11724
▁hub	-11725
▁outa	-11726
ormal	-11727
▁chickfila	-11728
pos	-11729
▁sweaters	-11730
pal	-11731
▁journal	-11732
▁americans	-11733
bbing	-11734
▁purs	-11735
▁academy	-11736
▁genuine	-11737
▁ganda	-11738
lbs	-11739
▁kang	-11740
▁nbs	-11741
▁kor	-11742
▁sly	-11743
▁celebrities	-11744
▁connected	-11745
icial	-11746
▁robbed	-11747
▁wonders	-11748
▁bark	-11749
▁dez	-11750
▁dreamt	-11751
▁jams	-11752
▁artists	-11753
▁operation	-11754
▁error	-11755
▁boooo	-11756
▁yaaaay	-11757
yas	-11758
dogs	-11759
▁jog	-11760
▁kirst	-11761
neck	-11762
▁apt	-11763
▁erry	-11764
▁grou	-11765
▁unfriend	-11766
▁quad	-11767
▁aku	-11768
▁maris	-11769
▁relaxed	-11770
▁westbrook	-11771
▁ada	-11772
▁sooo	-11773
ickest	-11774
▁wya	-11775
▁independence	-11776
▁corp	-11777
yl	-11778
▁toot	-11779
▁bombs	-11780
▁activities	-11781
▁conclusion	-11782
▁dame	-11783
▁heartbeat	-11784
▁streak	-11785
▁beanie	-11786
▁ability	-11787
▁typed	-11788
▁rin	-11789
▁occasion	-11790
hello	-11791
▁votes	-11792
flow	-11793
▁balloon	-11794
dee	-11795
▁thread	-11796
▁gangster	-11797
ilyn	-11798
▁bap	-11799
iiiiii	-11800
▁tid	-11801
▁uploading	-11802
▁hike	-11803
▁binge	-11804
guard	-11805
▁enemi	-11806
▁virgo	-11807
▁classmates	-11808
bies	-11809
▁links	-11810
▁ek	-11811
▁niqq	-11812
▁cuffing	-11813
▁brighten	-11814
▁watt	-11815
▁exs	-11816
▁suns	-11817
▁tower	-11818
▁smashing	-11819
▁bandwagon	-11820
working	-11821
▁removed	-11822
rosse	-11823
sssss	-11824
▁debit	-11825
▁okey	-11826
▁gag	-11827
▁freckles	-11828
▁️️	-11829
▁admin	-11830
▁aur	-11831
▁enemies	-11832
▁greatly	-11833
aughter	-11834
▁maze	-11835
▁asse	-11836
hog	-11837
zzzz	-11838
▁legendary	-11839
▁leh	-11840
venient	-11841
▁sprite	-11842
▁scooter	-11843
▁strongest	-11844
▁🍵	-11845
▁swan	-11846
ppin	-11847
▁mere	-11848
▁onion	-11849
▁underest	-11850
▁titanic	-11851
▁cheaper	-11852
▁fian	-11853
▁trusted	-11854
pls	-11855
ures	-11856
▁cycle	-11857
▁mufc	-11858
▁sunrise	-11859
▁cw	-11860
▁culture	-11861
1!	-11862
▁thugg	-11863
****	-11864
▁asdf	-11865
▁rushing	-11866
▁harass	-11867
▁⛵	-11868
▁duhh	-11869
▁ren	-11870
hu	-11871
▁lmbo	-11872
▁oooooo	-11873
grateful	-11874
cck	-11875
▁spy	-11876
fting	-11877
▁doritos	-11878
▁ola	-11879
▁unlo	-11880
▁caffeine	-11881
▁acid	-11882
▁kong	-11883
▁uploaded	-11884
▁peru	-11885
▁oatmeal	-11886
▁maw	-11887
▁agh	-11888
▁pittsburgh	-11889
▁dolls	-11890
▁denn	-11891
▁gangsta	-11892
▁somo	-11893
▁legally	-11894
▁imissyou	-11895
▁lacrosse	-11896
▁pms	-11897
▁buttons	-11898
▁yew	-11899
▁genes	-11900
▁loses	-11901
▁lesbians	-11902
dis	-11903
▁mg	-11904
▁tum	-11905
▁habits	-11906
▁youngin	-11907
▁volume	-11908
▁phoenix	-11909
aver	-11910
▁ayye	-11911
playing	-11912
▁knicks	-11913
▁behavior	-11914
▁bail	-11915
▁wonderland	-11916
▁wim	-11917
atable	-11918
▁maleficent	-11919
▁wrapping	-11920
▁cheerleading	-11921
irline	-11922
omi	-11923
▁unbelievably	-11924
million	-11925
▁travelling	-11926
▁sham	-11927
▁stah	-11928
?'	-11929
▁soulja	-11930
▁sums	-11931
▁bugging	-11932
oda	-11933
bus	-11934
▁greedy	-11935
▁textin	-11936
umin	-11937
olas	-11938
▁inf	-11939
tic	-11940
acing	-11941
tis	-11942
aki	-11943
eeeeeee	-11944
▁skittles	-11945
▁durk	-11946
stitute	-11947
▁macaron	-11948
once	-11949
▁brist	-11950
christ	-11951
▁particular	-11952
▁tats	-11953
▁carmel	-11954
▁ceremony	-11955
▁alli	-11956
▁nachos	-11957
▁feedback	-11958
▁femin	-11959
▁swore	-11960
▁jumper	-11961
lif	-11962
▁campaign	-11963
▁rosie	-11964
▁🐑	-11965
▁*-*	-11966
▁mock	-11967
ete	-11968
▁boarding	-11969
▁confuse	-11970
▁require	-11971
eg	-11972
▁denny	-11973
▁teasing	-11974
▁todays	-11975
▁pab	-11976
▁baller	-11977
▁whatchu	-11978
▁nappy	-11979
▁marshm	-11980
▁bts	-11981
▁deeper	-11982
▁tide	-11983
▁unhappy	-11984
▁suc	-11985
▁learnt	-11986
arily	-11987
phy	-11988
▁border	-11989
▁midterms	-11990
▁avengers	-11991
▁booboo	-11992
jun	-11993
▁ebay	-11994
ov	-11995
▁ping	-11996
▁alaska	-11997
▁deed	-11998
▁samantha	-11999
▁hahahahha	-12000
▁fuckboy	-12001
▁stabbed	-12002
rite	-12003
▁belle	-12004
▁roger	-12005
rows	-12006
▁bluff	-12007
opher	-12008
▁⭕	-12009
▁hass	-12010
▁myspace	-12011
▁laa	-12012
aaaaah	-12013
nothing	-12014
▁zoom	-12015
▁escal	-12016
▁universal	-12017
▁dakota	-12018
beck	-12019
98	-12020
atus	-12021
▁stepdad	-12022
▁technology	-12023
inho	-12024
▁unatt	-12025
▁$2	-12026
▁grows	-12027
▁sheep	-12028
▁doughnuts	-12029
▁pounding	-12030
▁ket	-12031
▁milan	-12032
▁exclus	-12033
▁nikko	-12034
▁creeps	-12035
▁stiff	-12036
:...	-12037
▁chant	-12038
▁boxers	-12039
▁edm	-12040
▁edin	-12041
▁broadcast	-12042
▁lmaa	-12043
▁farts	-12044
▁seein	-12045
▁apologies	-12046
▁wives	-12047
▁shen	-12048
▁stereo	-12049
▁dit	-12050
▁leak	-12051
omo	-12052
▁><	-12053
ined	-12054
would	-12055
▁dose	-12056
▁aggravating	-12057
mont	-12058
▁attacks	-12059
▁bog	-12060
▁tempting	-12061
▁sleepless	-12062
dc	-12063
rences	-12064
umba	-12065
▁tickle	-12066
iesta	-12067
▁courage	-12068
▁offers	-12069
▁glue	-12070
▁fuckn	-12071
▁cleats	-12072
▁dancers	-12073
▁hahahahahahaha	-12074
ruit	-12075
▁breeze	-12076
▁barking	-12077
▁🍱	-12078
urb	-12079
▁bambi	-12080
▁choked	-12081
▁ineed	-12082
,"	-12083
▁peeve	-12084
▁existed	-12085
▁lub	-12086
▁disease	-12087
▁unknown	-12088
▁pond	-12089
▁canes	-12090
▁believes	-12091
▁glitter	-12092
▁fk	-12093
▁fence	-12094
▁dealer	-12095
▁facetimed	-12096
▁ange	-12097
▁angela	-12098
ouu	-12099
▁sama	-12100
▁sprink	-12101
rome	-12102
▁kourt	-12103
▁chewing	-12104
▁cussing	-12105
▁blueberry	-12106
▁vit	-12107
▁trippy	-12108
▁untill	-12109
▁ano	-12110
▁coursework	-12111
▁pile	-12112
▁looove	-12113
din	-12114
ardi	-12115
▁annual	-12116
▁superb	-12117
▁wbu	-12118
▁esteem	-12119
kh	-12120
▁opps	-12121
nextdoor	-12122
▁irritate	-12123
▁roomies	-12124
uguay	-12125
▁loaf	-12126
▁kenzie	-12127
▁cand	-12128
▁concept	-12129
ahahahaha	-12130
bol	-12131
▁races	-12132
▁homeboy	-12133
>....	-12134
▁cents	-12135
bourne	-12136
dings	-12137
▁rejected	-12138
▁oke	-12139
▁romo	-12140
▁darlin	-12141
rats	-12142
des	-12143
▁ws	-12144
▁jets	-12145
▁pug	-12146
▁useful	-12147
▁cheeseburger	-12148
▁jojo	-12149
▁heights	-12150
▁waaaay	-12151
▁‘	-12152
▁jew	-12153
▁carib	-12154
bread	-12155
▁iight	-12156
▁concern	-12157
▁nev	-12158
▁auss	-12159
▁easiest	-12160
▁picnic	-12161
quel	-12162
▁marvel	-12163
▁speeding	-12164
rael	-12165
▁receipts	-12166
▁gabe	-12167
aman	-12168
being	-12169
▁fierce	-12170
▁camel	-12171
▁documentary	-12172
▁sung	-12173
▁shook	-12174
▁curves	-12175
▁belongs	-12176
▁fiancé	-12177
▁dedication	-12178
▁pimple	-12179
▁limited	-12180
▁dic	-12181
▁depos	-12182
▁shmoney	-12183
▁sacrif	-12184
▁sj	-12185
▁🌛	-12186
nnnn	-12187
tour	-12188
▁colombian	-12189
few	-12190
▁recruit	-12191
▁temperature	-12192
▁sherman	-12193
▁grader	-12194
▁greater	-12195
▁filipino	-12196
enson	-12197
▁sext	-12198
▁dix	-12199
▁raging	-12200
▁chopped	-12201
▁fork	-12202
oops	-12203
▁roasted	-12204
▁digits	-12205
mich	-12206
▁defe	-12207
▁soaked	-12208
▁superbowl	-12209
▁beta	-12210
▁angle	-12211
▁normani	-12212
ractive	-12213
▁ponytail	-12214
▁idont	-12215
▁hurricane	-12216
active	-12217
▁flaws	-12218
▁tool	-12219
▁morris	-12220
▁adidas	-12221
▁commenting	-12222
▁dipl	-12223
ounds	-12224
cum	-12225
looks	-12226
orrow	-12227
▁dank	-12228
▁prot	-12229
ington	-12230
▁🐛	-12231
▁ench	-12232
icted	-12233
▁flock	-12234
▁fatter	-12235
chez	-12236
▁hul	-12237
4.	-12238
▁🎯	-12239
▁glorious	-12240
mc	-12241
▁snowed	-12242
▁sunburnt	-12243
▁motorcycle	-12244
▁fuckk	-12245
▁uruguay	-12246
▁butterfly	-12247
▁heating	-12248
▁qb	-12249
▁trent	-12250
shots	-12251
▁cran	-12252
▁hunn	-12253
▁☆	-12254
yall	-12255
▁leads	-12256
adi	-12257
leg	-12258
▁amazed	-12259
▁madd	-12260
▁aah	-12261
▁scoring	-12262
▁leaders	-12263
▁loc	-12264
▁yayay	-12265
▁kare	-12266
▁correction	-12267
flower	-12268
lil	-12269
▁vicky	-12270
▁fright	-12271
▁visited	-12272
▁🚔	-12273
▁fas	-12274
▁hamp	-12275
▁saves	-12276
▁macaroni	-12277
▁heeee	-12278
▁breezy	-12279
▁roots	-12280
▁ely	-12281
ridge	-12282
▁lopez	-12283
▁notifs	-12284
▁phrase	-12285
▁showered	-12286
▁ironic	-12287
▁nvr	-12288
▁sheff	-12289
▁shown	-12290
▁renew	-12291
▁brutal	-12292
▁crutch	-12293
▁youngest	-12294
▁marco	-12295
▁airplane	-12296
',	-12297
yr	-12298
▁frame	-12299
sk	-12300
cole	-12301
▁willy	-12302
▁awks	-12303
kyo	-12304
zzle	-12305
▁daquan	-12306
▁robbie	-12307
enjoy	-12308
▁pacers	-12309
▁disaster	-12310
▁gbu	-12311
▁lagi	-12312
▁minnes	-12313
▁vet	-12314
▁pel	-12315
▁buds	-12316
▁grams	-12317
▁headband	-12318
▁coolin	-12319
▁collar	-12320
▁sry	-12321
▁hairstyle	-12322
▁kpop	-12323
▁concentrate	-12324
ianna	-12325
▁complex	-12326
▁poly	-12327
imately	-12328
▁almond	-12329
▁vegan	-12330
iam	-12331
cups	-12332
▁roshes	-12333
▁string	-12334
54	-12335
▁lus	-12336
▁bever	-12337
▁oldest	-12338
boro	-12339
ration	-12340
▁cruz	-12341
▁throwin	-12342
▁givin	-12343
▁permanent	-12344
kah	-12345
▁relieved	-12346
▁aband	-12347
▁mercedes	-12348
beautiful	-12349
▁bricks	-12350
stage	-12351
▁aloud	-12352
▁sexier	-12353
▁nationals	-12354
▁bees	-12355
▁chore	-12356
▁niggaa	-12357
▁poem	-12358
▁niggahs	-12359
fever	-12360
▁northern	-12361
memor	-12362
▁heavenly	-12363
▁sticky	-12364
▁godzilla	-12365
▁commented	-12366
▁lamp	-12367
▁greens	-12368
fuq	-12369
▁joshua	-12370
!?!?	-12371
gets	-12372
▁alfie	-12373
▁otw	-12374
archy	-12375
movie	-12376
▁stingy	-12377
▁cocktails	-12378
▁☹	-12379
▁icy	-12380
▁owl	-12381
▁utter	-12382
kings	-12383
.,	-12384
▁tuition	-12385
tfo	-12386
▁inti	-12387
▁users	-12388
▁fuzzy	-12389
▁construction	-12390
▁anch	-12391
▁piggy	-12392
▁abroad	-12393
▁sap	-12394
table	-12395
▁nailed	-12396
▁graph	-12397
▁lass	-12398
▁thankyouu	-12399
▁essex	-12400
▁"#	-12401
▁blowin	-12402
▁soulmate	-12403
bows	-12404
▁mystery	-12405
graded	-12406
wanna	-12407
▁thy	-12408
itzer	-12409
▁likewise	-12410
▁dora	-12411
▁srry	-12412
▁legends	-12413
▁bristol	-12414
▁bikin	-12415
▁sucka	-12416
▁oooooh	-12417
,,,	-12418
ority	-12419
▁brocc	-12420
▁motto	-12421
▁pff	-12422
▁register	-12423
ean	-12424
card	-12425
▁happppy	-12426
▁employee	-12427
▁aids	-12428
▁losers	-12429
aaaas	-12430
▁partynextdoor	-12431
▁indy	-12432
mmmm	-12433
▁forgets	-12434
▁purchased	-12435
▁irwin	-12436
▁minded	-12437
▁hahahaa	-12438
imin	-12439
▁chains	-12440
▁nieces	-12441
writing	-12442
▁myrtle	-12443
andi	-12444
▁arena	-12445
thought	-12446
▁discover	-12447
▁digi	-12448
▁jumps	-12449
▁colder	-12450
▁cara	-12451
▁furn	-12452
▁impressive	-12453
▁🚴	-12454
▁starve	-12455
▁swings	-12456
▁sox	-12457
pad	-12458
ttttt	-12459
▁fireball	-12460
▁fund	-12461
▁gust	-12462
>"""	-12463
othe	-12464
names	-12465
▁wallpaper	-12466
▁nyquil	-12467
help	-12468
▁param	-12469
▁peeing	-12470
▁👕	-12471
▁poll	-12472
should	-12473
▁categ	-12474
▁visits	-12475
boyfriend	-12476
▁elite	-12477
▁dodgers	-12478
ppa	-12479
▁oop	-12480
▁bonnie	-12481
▁gassed	-12482
▁lindsey	-12483
500	-12484
▁luc	-12485
▁bruv	-12486
screen	-12487
▁source	-12488
▁tas	-12489
▁diving	-12490
▁persons	-12491
date	-12492
▁💒	-12493
▁soldier	-12494
▁reactions	-12495
twitter	-12496
64	-12497
spir	-12498
▁ungrateful	-12499
▁extensions	-12500
▁cooling	-12501
▁introduced	-12502
▁couns	-12503
▁kass	-12504
jkl	-12505
inee	-12506
▁heroes	-12507
▁goggle	-12508
▁tayl	-12509
▁horos	-12510
▁cranky	-12511
▁♋	-12512
ially	-12513
▁deeply	-12514
^^	-12515
▁giggle	-12516
osp	-12517
▁lien	-12518
▁mouths	-12519
▁exclusive	-12520
87	-12521
▁gaw	-12522
▁enri	-12523
▁witchu	-12524
tan	-12525
▁kane	-12526
▁aches	-12527
▁agu	-12528
▁dae	-12529
▁huhuhu	-12530
▁notices	-12531
▁🚢	-12532
▁broccoli	-12533
▁arian	-12534
▁tray	-12535
union	-12536
▁cursed	-12537
▁drinkin	-12538
been	-12539
▁doggy	-12540
▁yells	-12541
▁arctic	-12542
▁gtfoh	-12543
▁resort	-12544
▁guu	-12545
▁dragons	-12546
▁kidnap	-12547
wi	-12548
▁seren	-12549
someone	-12550
▁beards	-12551
▁justsay	-12552
▁tok	-12553
▁cutee	-12554
▁glen	-12555
cant	-12556
▁raiders	-12557
▁audience	-12558
▁explan	-12559
▁drowning	-12560
▁errands	-12561
▁hog	-12562
▁politics	-12563
▁drunken	-12564
▁scrap	-12565
▁caused	-12566
▁dyin	-12567
ously	-12568
▁triang	-12569
▁gentlemen	-12570
▁asdfgh	-12571
▁smarter	-12572
85	-12573
tttt	-12574
▁stahp	-12575
▁israel	-12576
▁translate	-12577
gf	-12578
templ	-12579
tes	-12580
▁aaah	-12581
▁mfers	-12582
▁museum	-12583
▁brighton	-12584
▁asians	-12585
▁sticker	-12586
▁advanced	-12587
▁drift	-12588
▁grapes	-12589
ilah	-12590
▁worldwide	-12591
▁fatass	-12592
▁edits	-12593
pretty	-12594
▁macbook	-12595
▁🎹	-12596
queen	-12597
▁seaf	-12598
▁springs	-12599
▁massages	-12600
▁directed	-12601
▁rav	-12602
▁tokyo	-12603
▁karlie	-12604
▁zz	-12605
▁indust	-12606
acke	-12607
▁milf	-12608
fuckin	-12609
▁fitting	-12610
▁btch	-12611
▁gravy	-12612
▁groups	-12613
everything	-12614
▁baham	-12615
▁auburn	-12616
▁exposing	-12617
▁nxt	-12618
▁sak	-12619
▁bcuz	-12620
▁nuff	-12621
▁dipped	-12622
▁tights	-12623
▁ignorance	-12624
▁♪	-12625
▁storage	-12626
▁trainers	-12627
▁dq	-12628
▁vacu	-12629
▁tesco	-12630
▁hooters	-12631
▁phew	-12632
▁scottish	-12633
63	-12634
▁recipe	-12635
thang	-12636
▁inshallah	-12637
▁sandy	-12638
nox	-12639
▁cn	-12640
▁gifs	-12641
▁witcha	-12642
igo	-12643
▁skint	-12644
▁neighbour	-12645
eat	-12646
aroo	-12647
▁claud	-12648
▁foam	-12649
▁halo	-12650
▁unnie	-12651
▁lux	-12652
▁spelt	-12653
▁tai	-12654
▁kle	-12655
between	-12656
▁palace	-12657
▁mocha	-12658
▁icant	-12659
▁slides	-12660
▁dillon	-12661
▁levi	-12662
▁contempl	-12663
▁brenda	-12664
▁display	-12665
▁devils	-12666
▁boiling	-12667
▁pepsi	-12668
▁priority	-12669
▁von	-12670
cross	-12671
▁yeay	-12672
aves	-12673
▁directions	-12674
olf	-12675
rio	-12676
▁rj	-12677
vp	-12678
▁rights	-12679
▁unlucky	-12680
▁mick	-12681
▁yar	-12682
▁strikes	-12683
mbly	-12684
▁jame	-12685
▁reed	-12686
▁columbia	-12687
▁hola	-12688
▁minnesota	-12689
▁dragged	-12690
▁finesse	-12691
▁succeed	-12692
▁warming	-12693
▁capture	-12694
▁🐚	-12695
▁rodeo	-12696
kan	-12697
▁🐐	-12698
▁intimid	-12699
dia	-12700
park	-12701
▁nast	-12702
▁fooling	-12703
wo	-12704
▁harm	-12705
▁privile	-12706
▁moist	-12707
▁bahamas	-12708
▁fres	-12709
▁buses	-12710
▁financial	-12711
▁dusty	-12712
▁jewelry	-12713
entions	-12714
▁plates	-12715
▁unblock	-12716
▁sadie	-12717
▁rover	-12718
▁mour	-12719
enda	-12720
▁shag	-12721
▁stalked	-12722
city	-12723
ivals	-12724
▁rack	-12725
▁helen	-12726
▁demo	-12727
▁tipsy	-12728
▁lovelies	-12729
▁century	-12730
start	-12731
>(	-12732
▁cracker	-12733
▁chy	-12734
▁redo	-12735
▁sque	-12736
▁awesom	-12737
▁fallon	-12738
▁swap	-12739
▁colin	-12740
▁mashed	-12741
▁colours	-12742
▁jackets	-12743
iva	-12744
▁defend	-12745
▁hawai	-12746
▁arth	-12747
uese	-12748
▁lfc	-12749
▁goodies	-12750
▁pleaseee	-12751
▁significant	-12752
jacob	-12753
▁raspberry	-12754
▁timehop	-12755
▁define	-12756
▁seafood	-12757
▁deadline	-12758
▁nk	-12759
daya	-12760
▁libra	-12761
▁gira	-12762
▁blaze	-12763
▁civil	-12764
▁noone	-12765
ormon	-12766
▁kinderg	-12767
▁barry	-12768
▁____	-12769
inst	-12770
yous	-12771
▁wce	-12772
▁yang	-12773
>/3	-12774
atever	-12775
▁💴	-12776
▁swerve	-12777
tar	-12778
▁chapstick	-12779
▁zax	-12780
vve	-12781
▁marijuana	-12782
▁boobies	-12783
▁imagination	-12784
▁scratched	-12785
▁strippers	-12786
▁daa	-12787
101	-12788
▁erika	-12789
▁ns	-12790
▁wii	-12791
▁jong	-12792
▁restart	-12793
▁file	-12794
▁fallin	-12795
▁touches	-12796
pot	-12797
ami	-12798
atives	-12799
▁griffin	-12800
▁gau	-12801
▁mos	-12802
▁thas	-12803
caniff	-12804
▁blur	-12805
rk	-12806
ugly	-12807
▁chow	-12808
▁synd	-12809
fty	-12810
▁trial	-12811
▁glam	-12812
▁tropical	-12813
▁nadine	-12814
▁surviv	-12815
▁coldplay	-12816
▁responded	-12817
neys	-12818
▁cyber	-12819
▁shab	-12820
51	-12821
▁mushroom	-12822
hma	-12823
▁tp	-12824
▁mae	-12825
▁whatcha	-12826
dance	-12827
▁rting	-12828
▁tread	-12829
▁itching	-12830
sis	-12831
lose	-12832
▁alotta	-12833
▁buzzin	-12834
▁positivity	-12835
base	-12836
▁lmk	-12837
▁cater	-12838
▁hyster	-12839
TM	-12840
▁spilt	-12841
▁frappe	-12842
▁hfan	-12843
▁temple	-12844
52	-12845
▁bets	-12846
▁bahaha	-12847
▁tyson	-12848
inking	-12849
▁lols	-12850
▁comfor	-12851
must	-12852
feeling	-12853
summer	-12854
▁sehun	-12855
▁rooney	-12856
▁slumped	-12857
▁imysm	-12858
▁🌆	-12859
▁deja	-12860
▁solution	-12861
▁youve	-12862
▁croat	-12863
▁knoww	-12864
ario	-12865
▁suh	-12866
▁goodby	-12867
▁practices	-12868
▁stil	-12869
▁insist	-12870
kie	-12871
▁lmaoooo	-12872
▁–	-12873
yye	-12874
hyun	-12875
▁jacobs	-12876
▁smelled	-12877
▁tristan	-12878
▁dming	-12879
▁edinburgh	-12880
▁redd	-12881
▁sharks	-12882
▁giraffe	-12883
▁closes	-12884
minus	-12885
▁edward	-12886
▁stupidity	-12887
mod	-12888
tons	-12889
▁mamma	-12890
elove	-12891
▁yesssss	-12892
▁gid	-12893
▁hedge	-12894
▁pharrell	-12895
lynn	-12896
▁audio	-12897
▁killers	-12898
▁strand	-12899
▁unattractive	-12900
▁royals	-12901
▁skiing	-12902
▁niel	-12903
▁tribute	-12904
quote	-12905
single	-12906
▁flashbacks	-12907
▁fwy	-12908
▁bikes	-12909
79	-12910
▁weirdos	-12911
▁humanity	-12912
▁mcd	-12913
▁humm	-12914
▁laur	-12915
▁hain	-12916
▁bball	-12917
▁portuguese	-12918
whe	-12919
▁cozy	-12920
▁plss	-12921
▁farewell	-12922
▁flexin	-12923
▁badd	-12924
▁wondered	-12925
▁cuzz	-12926
▁differently	-12927
true	-12928
▁fris	-12929
▁sneaking	-12930
▁hfanuary	-12931
▁antic	-12932
▁awak	-12933
▁devastated	-12934
▁🐤	-12935
▁saver	-12936
▁tags	-12937
▁elijah	-12938
▁department	-12939
iso	-12940
▁betty	-12941
▁kingdom	-12942
▁winston	-12943
jes	-12944
▁dolphins	-12945
▁📓	-12946
▁butthurt	-12947
▁detention	-12948
kd	-12949
▁©	-12950
▁breed	-12951
much	-12952
▁pastor	-12953
pathy	-12954
omen	-12955
▁pala	-12956
▁lg	-12957
nell	-12958
▁slag	-12959
▁yourselves	-12960
club	-12961
zes	-12962
niggas	-12963
▁trunk	-12964
▁lizzie	-12965
▁loooooooo	-12966
▁gladly	-12967
meet	-12968
▁nicky	-12969
▁marvin	-12970
hole	-12971
▁chai	-12972
▁suspect	-12973
▁kiddo	-12974
▁paragraphs	-12975
▁tomorrows	-12976
▁loveit	-12977
▁warmer	-12978
▁lc	-12979
▁overwhelmed	-12980
▁riot	-12981
▁sanchez	-12982
▁kmt	-12983
▁jag	-12984
▁raising	-12985
▁dukes	-12986
▁duper	-12987
▁heater	-12988
ucc	-12989
▁patron	-12990
▁wag	-12991
▁lego	-12992
▁xav	-12993
▁owen	-12994
▁flattered	-12995
enne	-12996
▁loml	-12997
▁bumps	-12998
▁vmas	-12999
▁bells	-13000
▁mosquitos	-13001
thes	-13002
▁teaser	-13003
▁household	-13004
rolled	-13005
▁crashing	-13006
stars	-13007
▁glast	-13008
tor	-13009
▁chased	-13010
▁curled	-13011
▁bastards	-13012
▁irritates	-13013
▁brett	-13014
▁resident	-13015
▁meee	-13016
eeeeee	-13017
▁cuzzo	-13018
▁banner	-13019
▁hangin	-13020
uuut	-13021
▁pree	-13022
▁pagi	-13023
standing	-13024
▁aggravated	-13025
▁aff	-13026
▁athletes	-13027
jj	-13028
▁deals	-13029
▁depri	-13030
tur	-13031
▁ashy	-13032
▁vlog	-13033
▁exists	-13034
▁hiccups	-13035
▁settled	-13036
▁covering	-13037
▁🏥	-13038
amos	-13039
▁wildin	-13040
▁adams	-13041
▁madonna	-13042
bas	-13043
▁traps	-13044
▁marketing	-13045
▁elena	-13046
▁serena	-13047
▁purposely	-13048
▁clips	-13049
▁thunderstorm	-13050
eel	-13051
uries	-13052
▁hobbit	-13053
▁sail	-13054
▁provide	-13055
▁chal	-13056
▁whooping	-13057
voo	-13058
▁naah	-13059
looking	-13060
▁forgiven	-13061
▁negativity	-13062
▁happend	-13063
▁brake	-13064
▁gavin	-13065
▁nerds	-13066
▁gott	-13067
▁vocals	-13068
nobody	-13069
▁probz	-13070
▁podcast	-13071
▁lolololol	-13072
power	-13073
▁seed	-13074
stud	-13075
▁causing	-13076
.””	-13077
▁harden	-13078
rue	-13079
▁tooo	-13080
▁venue	-13081
▁pleeee	-13082
▁thus	-13083
▁dai	-13084
▁brandy	-13085
▁fulf	-13086
▁expert	-13087
▁tyre	-13088
▁rashe	-13089
▁jug	-13090
brush	-13091
▁dodger	-13092
▁louisville	-13093
▁sige	-13094
▁messaging	-13095
▁littlest	-13096
▁preorder	-13097
▁motivate	-13098
▁mustache	-13099
▁mild	-13100
▁anarchy	-13101
mag	-13102
▁procrastination	-13103
could	-13104
▁directly	-13105
▁retainer	-13106
young	-13107
▁items	-13108
▁lsu	-13109
▁🏇	-13110
▁shaun	-13111
▁♻	-13112
▁db	-13113
▁turk	-13114
▁fighter	-13115
53	-13116
▁deaf	-13117
▁client	-13118
▁>>>>>>>	-13119
.^	-13120
▁approaching	-13121
xh	-13122
▁cussed	-13123
▁shouldve	-13124
▁orgas	-13125
▁slippin	-13126
▁brownskin	-13127
▁timberlake	-13128
62	-13129
▁kab	-13130
▁begun	-13131
▁cay	-13132
nasty	-13133
dreams	-13134
▁clinic	-13135
tering	-13136
*"	-13137
sal	-13138
▁needy	-13139
▁whaaat	-13140
▁mattress	-13141
▁⃣	-13142
▁🐜	-13143
▁tris	-13144
daay	-13145
▁bracket	-13146
▁bray	-13147
▁mong	-13148
▁bryce	-13149
ardy	-13150
▁cartoons	-13151
▁freshly	-13152
▁friendzone	-13153
▁osu	-13154
mbley	-13155
▁honda	-13156
iiiit	-13157
▁chedd	-13158
▁caitlin	-13159
▁dafuq	-13160
ondocks	-13161
nae	-13162
▁adults	-13163
idi	-13164
▁ape	-13165
▁nigguh	-13166
▁diction	-13167
print	-13168
▁grabe	-13169
▁crutches	-13170
▁shortly	-13171
▁rubs	-13172
▁creeped	-13173
▁slower	-13174
happ	-13175
▁mahomies	-13176
▁liquid	-13177
▁proved	-13178
▁prosper	-13179
▁🐞	-13180
▁rats	-13181
▁offering	-13182
mt	-13183
▁dine	-13184
▁fxck	-13185
▁quoted	-13186
hawks	-13187
▁gilbert	-13188
▁superhero	-13189
▁🇺🇸🇺🇸	-13190
▁whateva	-13191
▁starring	-13192
rees	-13193
▁motav	-13194
▁cheered	-13195
▁snl	-13196
▁moth	-13197
▁honeymoon	-13198
osh	-13199
>“@:	-13200
iture	-13201
▁mare	-13202
uba	-13203
▁tissues	-13204
▁monroe	-13205
▁okie	-13206
▁frickin	-13207
▁homesick	-13208
▁angelina	-13209
▁utah	-13210
▁hired	-13211
▁weddings	-13212
▁weh	-13213
elu	-13214
▁rober	-13215
▁apology	-13216
?!?!?!	-13217
▁anderson	-13218
▁chandler	-13219
61	-13220
▁ayyye	-13221
gian	-13222
▁napping	-13223
▁asthma	-13224
▁curling	-13225
▁attempting	-13226
▁🐓	-13227
oso	-13228
▁clan	-13229
▁hanna	-13230
roller	-13231
▁clums	-13232
mg	-13233
▁📦	-13234
arten	-13235
▁heheh	-13236
▁abi	-13237
▁kaya	-13238
▁slutty	-13239
▁sized	-13240
▁weap	-13241
▁punishment	-13242
bay	-13243
▁participate	-13244
alone	-13245
▁tul	-13246
▁gats	-13247
▁relive	-13248
▁limits	-13249
▁tuff	-13250
▁jolly	-13251
▁dayton	-13252
▁bubbles	-13253
▁unforget	-13254
94	-13255
unks	-13256
▁beep	-13257
▁kaitlyn	-13258
▁cooks	-13259
▁dreamed	-13260
▁eventful	-13261
▁floating	-13262
▁boondocks	-13263
▁expressions	-13264
▁tita	-13265
▁izzy	-13266
isin	-13267
▁jordans	-13268
▁nalang	-13269
▁anticip	-13270
▁elsa	-13271
▁kayl	-13272
▁swipe	-13273
▁jalen	-13274
probz	-13275
▁ops	-13276
insky	-13277
▁hais	-13278
ricorn	-13279
78	-13280
▁zendaya	-13281
▁ads	-13282
▁crushes	-13283
▁audrey	-13284
▁wembley	-13285
▁seve	-13286
▁buckets	-13287
▁fortune	-13288
▁yuck	-13289
▁hectic	-13290
▁admitted	-13291
▁mitchell	-13292
crazy	-13293
▁phen	-13294
▁sorts	-13295
▁tablet	-13296
▁woh	-13297
▁ihy	-13298
▁screams	-13299
!'	-13300
ability	-13301
▁grier	-13302
▁leftovers	-13303
▁chosen	-13304
▁smokes	-13305
▁violent	-13306
cont	-13307
▁whom	-13308
▁timmy	-13309
▁offline	-13310
_.	-13311
▁kaw	-13312
▁hammer	-13313
▁samsung	-13314
▁assistant	-13315
▁leaf	-13316
▁oovoo	-13317
▁fasting	-13318
▁mx	-13319
▁task	-13320
▁🐇	-13321
▁ure	-13322
▁depending	-13323
▁aaaa	-13324
▁benefit	-13325
▁chilli	-13326
▁deadly	-13327
▁scratches	-13328
▁kra	-13329
▁ansel	-13330
▁valid	-13331
▁pedi	-13332
cco	-13333
▁mab	-13334
▁signature	-13335
▁takeaway	-13336
▁swears	-13337
▁hap	-13338
leys	-13339
▁->	-13340
▁rou	-13341
gment	-13342
▁caes	-13343
cling	-13344
woman	-13345
▁cuppa	-13346
▁dearest	-13347
▁domino	-13348
▁tel	-13349
▁clicked	-13350
▁avoiding	-13351
riel	-13352
▁jogging	-13353
▁neil	-13354
▁autograph	-13355
aria	-13356
▁afro	-13357
▁cindy	-13358
▁destination	-13359
▁jigg	-13360
▁waaay	-13361
▁assembly	-13362
▁draws	-13363
▁hamster	-13364
▁goodbyes	-13365
▁oot	-13366
tone	-13367
▁stir	-13368
▁ohhh	-13369
▁pickup	-13370
▁region	-13371
▁gracias	-13372
lights	-13373
▁marrying	-13374
>”””	-13375
▁tyr	-13376
▁acne	-13377
▁alley	-13378
▁fetus	-13379
▁pacqu	-13380
▁honors	-13381
▁kendra	-13382
▁sophomores	-13383
▁gamed	-13384
▁sally	-13385
▁poured	-13386
▁cuu	-13387
▁apprent	-13388
▁ridge	-13389
kees	-13390
▁tourney	-13391
▁creating	-13392
▁strictly	-13393
ili	-13394
▁jol	-13395
▁colts	-13396
▁sizes	-13397
▁nigger	-13398
enzie	-13399
▁hann	-13400
▁layed	-13401
gins	-13402
▁records	-13403
▁reaching	-13404
▁-->	-13405
▁regina	-13406
▁waved	-13407
▁impact	-13408
grow	-13409
▁acknowledge	-13410
▁cider	-13411
aker	-13412
▁dej	-13413
▁clark	-13414
▁rebecca	-13415
▁avoc	-13416
▁poetry	-13417
▁greget	-13418
▁bachata	-13419
▁tuna	-13420
zan	-13421
yrs	-13422
lett	-13423
▁drafted	-13424
▁sociology	-13425
▁nelly	-13426
▁norway	-13427
▁gaming	-13428
▁loooooooooo	-13429
▁thotties	-13430
▁nem	-13431
itude	-13432
▁fay	-13433
aaaaaaa	-13434
▁🍲	-13435
mama	-13436
▁diploma	-13437
▁waisted	-13438
▁aquarius	-13439
▁attendance	-13440
?""	-13441
▁chester	-13442
▁	-13443
sometimes	-13444
▁loooooool	-13445
▁tamales	-13446
▁capricorn	-13447
▁veh	-13448
▁thottie	-13449
▁invitation	-13450
du	-13451
▁🇩🇪	-13452
▁crackin	-13453
▁christopher	-13454
memories	-13455
▁obnox	-13456
▁pimples	-13457
▁sponsor	-13458
▁sheffield	-13459
challen	-13460
▁insul	-13461
▁imaginary	-13462
▁exhausting	-13463
▁bates	-13464
▁clow	-13465
▁baile	-13466
keem	-13467
▁talmb	-13468
▁furniture	-13469
.'	-13470
nya	-13471
▁hasnt	-13472
maids	-13473
wanted	-13474
▁divorce	-13475
▁frown	-13476
▁tbf	-13477
▁looooove	-13478
▁intelligent	-13479
▁thi	-13480
▁pablo	-13481
▁actors	-13482
▁trusting	-13483
▁mister	-13484
▁ihate	-13485
crush	-13486
▁virus	-13487
▁bundle	-13488
onn	-13489
▁lobby	-13490
everyone	-13491
gb	-13492
▁conse	-13493
▁indoor	-13494
▁shotgun	-13495
▁salman	-13496
▁suu	-13497
▁cursing	-13498
▁spitting	-13499
rix	-13500
▁enjo	-13501
▁werk	-13502
▁buuuut	-13503
▁theses	-13504
▁mistaken	-13505
gay	-13506
olis	-13507
▁bumped	-13508
▁cleared	-13509
▁hoco	-13510
▁bunnies	-13511
▁hosting	-13512
▁hp	-13513
rom	-13514
▁dumped	-13515
▁mendes	-13516
▁approach	-13517
▁fye	-13518
▁enrique	-13519
▁awareness	-13520
▁oxy	-13521
▁vevo	-13522
▁astr	-13523
▁booze	-13524
▁tanned	-13525
▁heel	-13526
already	-13527
▁betray	-13528
hoe	-13529
won	-13530
▁virtual	-13531
ooked	-13532
▁baaa	-13533
▁rust	-13534
▁twitch	-13535
▁bosh	-13536
▁gordon	-13537
▁stefan	-13538
▁preaching	-13539
retweet	-13540
▁trippen	-13541
▁stunting	-13542
▁dictionary	-13543
▁ditched	-13544
▁infinite	-13545
▁returning	-13546
▁conceited	-13547
▁heath	-13548
ogany	-13549
stein	-13550
ibilities	-13551
▁peters	-13552
▁lal	-13553
yon	-13554
aaaaaay	-13555
▁promotion	-13556
oyo	-13557
▁followmecaniff	-13558
▁onesie	-13559
▁stressin	-13560
▁exh	-13561
▁sirens	-13562
▁originals	-13563
▁temptation	-13564
▁refund	-13565
▁tissue	-13566
▁trampoline	-13567
▁🐈	-13568
▁thugs	-13569
▁fuckery	-13570
▁uns	-13571
▁carey	-13572
▁muffins	-13573
▁managers	-13574
fel	-13575
▁reverse	-13576
aline	-13577
▁stinks	-13578
▁dere	-13579
▁adopted	-13580
ded	-13581
▁seeds	-13582
▁busting	-13583
▁minimum	-13584
▁professors	-13585
▁casa	-13586
▁tayo	-13587
▁catchy	-13588
▁hershey	-13589
▁investig	-13590
▁%	-13591
▁acted	-13592
▁costs	-13593
adel	-13594
▁revol	-13595
▁thicker	-13596
▁restaurants	-13597
▁bumpin	-13598
▁arsed	-13599
▁gogglebox	-13600
camp	-13601
monday	-13602
▁venting	-13603
▁brom	-13604
▁amusing	-13605
▁luscious	-13606
▁questioning	-13607
▁alum	-13608
▁invites	-13609
bled	-13610
▁rained	-13611
lord	-13612
ophy	-13613
▁kb	-13614
▁pv	-13615
▁appreciates	-13616
gosh	-13617
arta	-13618
pets	-13619
▁appl	-13620
▁bhi	-13621
▁chairs	-13622
▁blaming	-13623
▁butler	-13624
dys	-13625
▁bummer	-13626
▁dmed	-13627
cers	-13628
▁lmfaooo	-13629
▁hollister	-13630
▁bora	-13631
▁frag	-13632
piece	-13633
▁fvck	-13634
▁transport	-13635
thia	-13636
▁shrek	-13637
▁entered	-13638
▁hawaiian	-13639
▁messaged	-13640
▁remake	-13641
▁gp	-13642
3,	-13643
▁zoned	-13644
▁aber	-13645
▁anyday	-13646
cting	-13647
▁yupp	-13648
▁entry	-13649
bum	-13650
▁nod	-13651
▁gad	-13652
▁traum	-13653
▁instr	-13654
cao	-13655
wtk	-13656
▁unfriended	-13657
elson	-13658
▁shush	-13659
▁commitment	-13660
itate	-13661
▁shet	-13662
▁santos	-13663
▁deposit	-13664
▁mucho	-13665
▁occup	-13666
▁peek	-13667
▁advis	-13668
▁torres	-13669
▁sweeter	-13670
uffed	-13671
▁yaya	-13672
▁hashtags	-13673
▁gill	-13674
▁hairline	-13675
▁memorable	-13676
▁pitt	-13677
▁wayy	-13678
▁kindergarten	-13679
▁unforgettable	-13680
▁haaa	-13681
▁meetings	-13682
uri	-13683
▁suga	-13684
▁bueno	-13685
hall	-13686
▁bhai	-13687
▁owned	-13688
▁ecuador	-13689
▁countries	-13690
▁terrifying	-13691
▁nya	-13692
▁turnin	-13693
▁🚪	-13694
▁joes	-13695
▁sandra	-13696
▁unbreak	-13697
▁thousands	-13698
opo	-13699
feed	-13700
alf	-13701
▁samp	-13702
▁ys	-13703
ippi	-13704
▁risky	-13705
pass	-13706
bh	-13707
▁alt	-13708
▁looo	-13709
▁amazingly	-13710
▁ahahahaha	-13711
▁barn	-13712
▁duncan	-13713
▁funday	-13714
▁handful	-13715
▁«	-13716
▁🎎	-13717
▁goalie	-13718
acles	-13719
▁riff	-13720
▁youuuuu	-13721
nast	-13722
omie	-13723
yeol	-13724
▁sobbing	-13725
?!”	-13726
▁ezra	-13727
bid	-13728
hah	-13729
fday	-13730
▁pace	-13731
▁posters	-13732
erts	-13733
▁kuwtk	-13734
▁monthsary	-13735
▁healing	-13736
▁tomoz	-13737
▁lectures	-13738
▁hve	-13739
▁cancun	-13740
▁hulk	-13741
▁requests	-13742
▁:")	-13743
orate	-13744
▁mafia	-13745
▁blushing	-13746
dri	-13747
esy	-13748
▁careless	-13749
uuuuh	-13750
▁lust	-13751
▁roshe	-13752
▁savages	-13753
▁asdfghjkl	-13754
▁climbing	-13755
▁kickin	-13756
▁gregetan	-13757
▁fooled	-13758
▁brief	-13759
▁ashit	-13760
▁baker	-13761
▁heey	-13762
▁wrestle	-13763
▁survivor	-13764
▁rhym	-13765
▁incom	-13766
llywood	-13767
▁🚽	-13768
▁bawling	-13769
▁monte	-13770
▁gonn	-13771
▁wale	-13772
▁persu	-13773
▁gatsby	-13774
▁freddy	-13775
▁chickens	-13776
▁effects	-13777
▁slapping	-13778
▁lut	-13779
mn	-13780
ettes	-13781
▁slammed	-13782
▁syndrome	-13783
▁alam	-13784
cts	-13785
osaur	-13786
▁alpha	-13787
▁goooooo	-13788
▁hints	-13789
▁curfew	-13790
▁addictive	-13791
lolol	-13792
▁curtain	-13793
▁choking	-13794
▁mills	-13795
▁ollie	-13796
▁enjoyable	-13797
▁passenger	-13798
▁maintain	-13799
addy	-13800
▁reece	-13801
▁lotta	-13802
bun	-13803
icop	-13804
▁idf	-13805
▁?!?	-13806
▁tackle	-13807
▁messes	-13808
▁kol	-13809
▁vest	-13810
▁berlin	-13811
▁lmfaoooo	-13812
urd	-13813
▁nav	-13814
▁dwn	-13815
▁talmbout	-13816
▁abort	-13817
▁crybaby	-13818
▁brushing	-13819
▁generous	-13820
▁ua	-13821
quest	-13822
▁paramore	-13823
▁lend	-13824
▁scrubs	-13825
▁opportun	-13826
▁frat	-13827
inda	-13828
▁bla	-13829
▁bias	-13830
▁snore	-13831
▁darius	-13832
▁funky	-13833
▁🍏	-13834
▁kenya	-13835
▁juliet	-13836
▁capable	-13837
itzerland	-13838
▁bragging	-13839
▁whores	-13840
oos	-13841
▁individual	-13842
▁tracy	-13843
▁croatia	-13844
▁bowls	-13845
challenge	-13846
hmm	-13847
▁lynn	-13848
▁grove	-13849
▁showering	-13850
▁successfully	-13851
▁asp	-13852
acular	-13853
▁copying	-13854
burst	-13855
▁maaan	-13856
hang	-13857
▁moyes	-13858
▁durant	-13859
▁marcos	-13860
▁💻	-13861
▁$40	-13862
shake	-13863
▁hait	-13864
blue	-13865
▁comedian	-13866
▁🚑	-13867
▁schleep	-13868
▁hong	-13869
▁salmon	-13870
▁uglier	-13871
▁chrissy	-13872
obile	-13873
▁trashy	-13874
▁harmon	-13875
▁greatness	-13876
▁chich	-13877
▁sauna	-13878
▁celebrations	-13879
▁pies	-13880
aland	-13881
▁mull	-13882
▁explanation	-13883
dude	-13884
▁yooo	-13885
▁tucker	-13886
▁mustard	-13887
▁hedgehog	-13888
▁roach	-13889
▁mississ	-13890
▁wesley	-13891
▁battles	-13892
▁maaaan	-13893
▁cameras	-13894
▁dys	-13895
▁bingo	-13896
▁minecraft	-13897
itty	-13898
plete	-13899
▁promp	-13900
uuuuuuuu	-13901
▁vegetarian	-13902
▁dissin	-13903
93	-13904
▁nawl	-13905
▁falcao	-13906
▁gio	-13907
nnd	-13908
▁altern	-13909
▁balcon	-13910
▁chilly	-13911
erved	-13912
▁gambino	-13913
girlfriend	-13914
lab	-13915
▁exagger	-13916
▁colton	-13917
▁mahogany	-13918
▁strips	-13919
▁highkey	-13920
▁shucks	-13921
▁sciss	-13922
ofthe	-13923
▁fond	-13924
▁bentley	-13925
▁beauties	-13926
bc	-13927
seat	-13928
▁hala	-13929
pective	-13930
aza	-13931
▁melbourne	-13932
ippy	-13933
▁guac	-13934
▁reign	-13935
▁strings	-13936
▁european	-13937
rin	-13938
▁lent	-13939
▁bait	-13940
▁🌄	-13941
chang	-13942
▁worthless	-13943
▁feds	-13944
▁lii	-13945
▁vomit	-13946
iiiiiiii	-13947
▁camilaham	-13948
▁thunderstorms	-13949
iro	-13950
▁dap	-13951
▁rodri	-13952
▁@/	-13953
▁meghan	-13954
▁whistle	-13955
than	-13956
were	-13957
▁congratulation	-13958
▁jadine	-13959
▁bullied	-13960
▁wrecked	-13961
▁tuh	-13962
▁inbetween	-13963
erm	-13964
▁conditioner	-13965
▁tryn	-13966
▁shidd	-13967
▁blurry	-13968
▁circles	-13969
thot	-13970
neath	-13971
▁wea	-13972
▁skies	-13973
▁suckin	-13974
▁unbreakable	-13975
irs	-13976
▁bic	-13977
▁doug	-13978
▁throwbacks	-13979
▁pacquiao	-13980
▁🇪🇸	-13981
▁duo	-13982
▁ulit	-13983
▁moree	-13984
▁neeee	-13985
▁camilahammers	-13986
▁eun	-13987
▁naww	-13988
▁dearly	-13989
▁automatic	-13990
▁dud	-13991
▁murphy	-13992
err	-13993
▁wawa	-13994
▁blacked	-13995
▁jorge	-13996
▁movin	-13997
enses	-13998
▁chas	-13999
mylife	-14000
▁fredd	-14001
▁smacking	-14002
▁batb	-14003
▁fuming	-14004
▁bore	-14005
'!	-14006
▁maury	-14007
▁yankees	-14008
ij	-14009
▁thiss	-14010
▁enjoys	-14011
▁yam	-14012
▁paula	-14013
▁swish	-14014
▁stap	-14015
▁frapp	-14016
alia	-14017
▁pout	-14018
▁emailed	-14019
▁oj	-14020
▁crispy	-14021
▁scent	-14022
▁🌜	-14023
▁mumb	-14024
▁stranded	-14025
▁switzerland	-14026
dge	-14027
▁concuss	-14028
▁caribbean	-14029
▁chevy	-14030
▁cannon	-14031
▁messin	-14032
▁ais	-14033
▁facing	-14034
▁fuh	-14035
▁vday	-14036
▁category	-14037
▁nauseous	-14038
▁lindsay	-14039
uah	-14040
upid	-14041
▁underestimate	-14042
▁kidnapped	-14043
▁resting	-14044
cumber	-14045
▁freeway	-14046
▁twd	-14047
▁scotty	-14048
▁warned	-14049
'?	-14050
71	-14051
rum	-14052
▁daaa	-14053
▁marqu	-14054
uate	-14055
▁camo	-14056
▁hoor	-14057
▁explained	-14058
▁underneath	-14059
▁informed	-14060
anor	-14061
▁nene	-14062
▁eastern	-14063
▁jae	-14064
▁communication	-14065
▁yi	-14066
▁critic	-14067
▁fuuuu	-14068
agna	-14069
▁cosy	-14070
▁gyal	-14071
▁kurt	-14072
▁reid	-14073
bestfriendday	-14074
▁sob	-14075
ashed	-14076
▁🍯	-14077
▁quart	-14078
▁humidity	-14079
▁bil	-14080
milton	-14081
▁motel	-14082
▁marina	-14083
usi	-14084
eter	-14085
▁wot	-14086
apa	-14087
▁bitchs	-14088
▁babee	-14089
▁approved	-14090
▁ud	-14091
▁discussing	-14092
72	-14093
▁fuq	-14094
▁semin	-14095
▁regg	-14096
▁oxford	-14097
▁♫	-14098
▁mayne	-14099
▁ditto	-14100
▁jed	-14101
▁levine	-14102
▁kourtney	-14103
▁joggers	-14104
▁services	-14105
▁poisoning	-14106
shia	-14107
▁fredo	-14108
▁lep	-14109
▁ivan	-14110
▁uf	-14111
ancing	-14112
▁swimsuit	-14113
thers	-14114
▁ein	-14115
▁yon	-14116
▁zumba	-14117
▁helicop	-14118
▁coma	-14119
millah	-14120
▁olaf	-14121
▁hopping	-14122
▁rotten	-14123
▁intention	-14124
hd	-14125
▁hahhaha	-14126
▁indians	-14127
▁dyke	-14128
▁logged	-14129
obs	-14130
▁ck	-14131
wick	-14132
▁charges	-14133
600	-14134
▁skool	-14135
▁fastest	-14136
▁savings	-14137
▁🚤	-14138
▁rex	-14139
stalg	-14140
▁whate	-14141
▁harrison	-14142
▁snickers	-14143
asss	-14144
▁wap	-14145
lette	-14146
▁helmet	-14147
▁friggin	-14148
▁chapters	-14149
▁updating	-14150
▁swallowed	-14151
▁retired	-14152
nvm	-14153
ormonday	-14154
▁caitlyn	-14155
▁ringtone	-14156
joh	-14157
▁🔶	-14158
▁pads	-14159
osphere	-14160
▁viral	-14161
mot	-14162
taking	-14163
▁fuuuuck	-14164
▁coins	-14165
▁perez	-14166
▁clumsy	-14167
▁〽	-14168
▁herb	-14169
▁decorate	-14170
▁disgusted	-14171
▁fback	-14172
▁jeremi	-14173
has	-14174
▁maine	-14175
▁masters	-14176
▁supplies	-14177
▁mya	-14178
▁asu	-14179
grace	-14180
▁tant	-14181
▁colleges	-14182
usive	-14183
▁firm	-14184
▁oned	-14185
▁thurs	-14186
oft	-14187
74	-14188
fucka	-14189
oning	-14190
anigans	-14191
▁pirates	-14192
▁intentions	-14193
▁complimented	-14194
▁asif	-14195
▁stain	-14196
shr	-14197
▁scars	-14198
▁waving	-14199
kids	-14200
pain	-14201
▁returned	-14202
▁roadtrip	-14203
▁ae	-14204
▁balcony	-14205
▁mindset	-14206
▁cashier	-14207
▁crusty	-14208
quad	-14209
▁bbuk	-14210
▁wright	-14211
▁schedules	-14212
▁banged	-14213
▁farting	-14214
▁awwe	-14215
▁ripping	-14216
▁motherfuckers	-14217
▁🌇	-14218
▁carrot	-14219
dae	-14220
▁mop	-14221
aime	-14222
▁addition	-14223
▁kiara	-14224
▁"!	-14225
▁pronoun	-14226
grad	-14227
▁welbeck	-14228
▁tft	-14229
▁rookie	-14230
▁hull	-14231
▁shakira	-14232
▁~~	-14233
▁munchkin	-14234
lease	-14235
▁baek	-14236
erer	-14237
▁smoo	-14238
▁icing	-14239
▁treadmill	-14240
>'5	-14241
▁dealers	-14242
▁pang	-14243
▁dwight	-14244
▁peppers	-14245
▁rosa	-14246
▁barbe	-14247
▁nemo	-14248
ingers	-14249
▁irony	-14250
xic	-14251
▁$30	-14252
upp	-14253
▁mara	-14254
▁flavored	-14255
▁♊	-14256
▁tale	-14257
▁rko	-14258
loves	-14259
▁unfortunate	-14260
▁yt	-14261
▁drums	-14262
▁vince	-14263
▁dinosaur	-14264
▁lone	-14265
icester	-14266
▁wrecking	-14267
▁wiff	-14268
▁showtime	-14269
rw	-14270
▁mcg	-14271
▁lala	-14272
▁shipped	-14273
▁sami	-14274
▁pointing	-14275
guy	-14276
inos	-14277
▁boil	-14278
▁denial	-14279
>.)	-14280
▁threatened	-14281
tley	-14282
▁dgaf	-14283
▁heeey	-14284
▁knuck	-14285
▁👞	-14286
odor	-14287
▁sedu	-14288
▁louie	-14289
▁motavat	-14290
▁betch	-14291
▁goto	-14292
▁tender	-14293
▁introducing	-14294
▁brud	-14295
▁bikinis	-14296
ierd	-14297
▁latina	-14298
▁pamper	-14299
▁xc	-14300
aina	-14301
▁cripp	-14302
▁origin	-14303
▁schoolers	-14304
▁opportunities	-14305
▁perm	-14306
▁payment	-14307
▁stanley	-14308
▁gala	-14309
▁slippers	-14310
▁sod	-14311
▁bravo	-14312
▁padilla	-14313
▁leonardo	-14314
▁shiny	-14315
▁gabrie	-14316
73	-14317
▁watson	-14318
▁margarita	-14319
▁quesad	-14320
▁mississippi	-14321
jab	-14322
▁insha	-14323
▁stresses	-14324
▁kilig	-14325
▁lizard	-14326
▁naruto	-14327
▁realizes	-14328
goodmorning	-14329
▁photograph	-14330
ffy	-14331
laugh	-14332
▁onions	-14333
▁wavy	-14334
▁donkey	-14335
▁nostalg	-14336
nng	-14337
▁yuu	-14338
▁yaay	-14339
▁abel	-14340
▁🗿	-14341
▁citiz	-14342
▁calculus	-14343
▁cube	-14344
▁faved	-14345
▁reveal	-14346
wl	-14347
▁peeling	-14348
reg	-14349
press	-14350
▁luu	-14351
▁performed	-14352
▁💡	-14353
▁flames	-14354
▁primary	-14355
▁lambert	-14356
▁screens	-14357
▁ufc	-14358
▁stam	-14359
logs	-14360
acher	-14361
▁memo	-14362
▁turner	-14363
▁channels	-14364
▁gcse	-14365
>//	-14366
▁horrend	-14367
▁kilt	-14368
76	-14369
▁effing	-14370
▁defensive	-14371
quer	-14372
▁cocktail	-14373
▁realising	-14374
▁releasing	-14375
▁lacking	-14376
▁takers	-14377
aze	-14378
kshire	-14379
▁bayern	-14380
▁costco	-14381
▁offensive	-14382
▁sleeves	-14383
ched	-14384
▁elephants	-14385
▁sled	-14386
hum	-14387
steven	-14388
▁kyrie	-14389
▁clique	-14390
▁loading	-14391
▁gender	-14392
)”	-14393
▁replacement	-14394
▁lively	-14395
▁welsh	-14396
▁unlock	-14397
▁lasagna	-14398
▁hamilton	-14399
▁pleaseeee	-14400
▁ciroc	-14401
▁tomorow	-14402
▁trained	-14403
▁boner	-14404
▁sasha	-14405
▁drooling	-14406
▁wireless	-14407
▁grandfather	-14408
reh	-14409
▁sixt	-14410
tomorrow	-14411
▁hend	-14412
elia	-14413
▁mim	-14414
▁vile	-14415
bring	-14416
▁liberty	-14417
▁creatures	-14418
▁bbm	-14419
wayne	-14420
▁turkish	-14421
▁smoothies	-14422
▁ned	-14423
▁scan	-14424
▁flann	-14425
conf	-14426
pest	-14427
▁orang	-14428
jesus	-14429
▁sloth	-14430
▁mortal	-14431
▁hib	-14432
alam	-14433
▁doh	-14434
▁counsel	-14435
▁kaylee	-14436
▁convenient	-14437
▁owns	-14438
▁cocoa	-14439
▁proves	-14440
▁spoilers	-14441
▁cristiano	-14442
max	-14443
▁lanc	-14444
▁arkansas	-14445
uro	-14446
▁termin	-14447
ittarius	-14448
▁cann	-14449
▁litt	-14450
▁daylight	-14451
▁bale	-14452
▁sting	-14453
▁gota	-14454
anga	-14455
▁reset	-14456
▁squid	-14457
▁wishful	-14458
▁confessions	-14459
ulo	-14460
▁dial	-14461
▁worm	-14462
fields	-14463
▁laws	-14464
sof	-14465
▁nbd	-14466
▁feast	-14467
bug	-14468
▁contemplating	-14469
▁quinn	-14470
▁gett	-14471
▁proving	-14472
▁terribly	-14473
🅰🆖	-14474
▁cities	-14475
▁lulu	-14476
▁rudy	-14477
▁fronting	-14478
▁horoscope	-14479
▁ferr	-14480
▁hakeem	-14481
▁distracting	-14482
▁horan	-14483
▁fruity	-14484
▁phenomen	-14485
▁writer	-14486
▁cinc	-14487
▁shred	-14488
▁acl	-14489
ibu	-14490
▁sundress	-14491
eal	-14492
▁moral	-14493
▁licked	-14494
▁philosophy	-14495
▁gymnast	-14496
puff	-14497
▁jinx	-14498
▁wand	-14499
▁worms	-14500
▁mhmm	-14501
▁pussies	-14502
▁redskins	-14503
▁stuffy	-14504
▁arabic	-14505
dan	-14506
rich	-14507
▁jit	-14508
▁garrett	-14509
move	-14510
rors	-14511
booty	-14512
▁coffe	-14513
▁proven	-14514
▁bruins	-14515
▁melanie	-14516
guess	-14517
▁bxtch	-14518
▁outcome	-14519
nest	-14520
▁tmw	-14521
weird	-14522
▁barbar	-14523
hub	-14524
▁nath	-14525
▁coron	-14526
▁bundles	-14527
▁burritos	-14528
erly	-14529
▁keepin	-14530
▁toothp	-14531
said	-14532
▁quid	-14533
▁kud	-14534
▁timbs	-14535
▁econom	-14536
▁rafa	-14537
▁fiesta	-14538
300	-14539
onia	-14540
yess	-14541
▁upsets	-14542
▁bris	-14543
▁hayden	-14544
▁reception	-14545
▁stickers	-14546
▁thaa	-14547
▁ordinary	-14548
▁evidence	-14549
▁rofl	-14550
▁candid	-14551
▁electricity	-14552
92	-14553
▁reli	-14554
▁maaaa	-14555
▁posh	-14556
▁ranger	-14557
▁wound	-14558
▁cheater	-14559
▁defending	-14560
▁appointments	-14561
▁lightening	-14562
▁manning	-14563
▁matts	-14564
▁strait	-14565
▁tucked	-14566
▁detective	-14567
▁sleepovers	-14568
▁yn	-14569
▁warn	-14570
▁dresser	-14571
▁poking	-14572
ahs	-14573
▁sherlock	-14574
▁killa	-14575
▁smelly	-14576
▁koo	-14577
▁cans	-14578
▁rasheeda	-14579
rage	-14580
▁typos	-14581
▁corrie	-14582
▁dann	-14583
▁eish	-14584
▁plzz	-14585
▁balik	-14586
▁ches	-14587
▁solved	-14588
pay	-14589
▁gs	-14590
▁^.^	-14591
iq	-14592
▁<--	-14593
▁benny	-14594
▁nz	-14595
▁faint	-14596
▁ohhhh	-14597
▁charle	-14598
▁salam	-14599
▁bagels	-14600
attan	-14601
▁gospe	-14602
>/8	-14603
▁judged	-14604
▁sot	-14605
▁zante	-14606
▁shee	-14607
▁ducking	-14608
▁sagittarius	-14609
getting	-14610
▁hatred	-14611
▁aussie	-14612
▁denise	-14613
▁sideline	-14614
▁manh	-14615
▁greeting	-14616
▁shouts	-14617
▁sincerely	-14618
▁figures	-14619
▁snuck	-14620
▁rc	-14621
▁dike	-14622
▁grav	-14623
▁thrill	-14624
▁peaches	-14625
▁outlet	-14626
▁craft	-14627
▁geeking	-14628
appa	-14629
▁chlo	-14630
▁compan	-14631
▁justsaying	-14632
▁lloy	-14633
▁hond	-14634
▁ware	-14635
▁hmmmm	-14636
imental	-14637
▁procrastinate	-14638
▁cv	-14639
▁islands	-14640
reading	-14641
▁xoxoxo	-14642
til	-14643
▁hangs	-14644
▁apartments	-14645
▁twel	-14646
▁backed	-14647
▁hallelu	-14648
mores	-14649
▁nest	-14650
▁donna	-14651
▁creator	-14652
▁swearing	-14653
▁cosm	-14654
▁overthink	-14655
▁superstar	-14656
▁dary	-14657
▁preferably	-14658
▁zoey	-14659
ackered	-14660
▁measure	-14661
▁perspective	-14662
otes	-14663
▁redbull	-14664
▁foster	-14665
▁terio	-14666
▁reviews	-14667
ggs	-14668
▁needles	-14669
▁snapchatted	-14670
▁sworn	-14671
jection	-14672
▁waits	-14673
ucking	-14674
▁hallways	-14675
▁twitterless	-14676
▁forces	-14677
iping	-14678
▁boyy	-14679
▁dion	-14680
▁pins	-14681
▁texans	-14682
▁imperfect	-14683
▁frustration	-14684
▁fict	-14685
▁motavatormonday	-14686
backs	-14687
bledon	-14688
late	-14689
▁sche	-14690
▁vacay	-14691
▁assess	-14692
▁oakland	-14693
▁patients	-14694
▁thankfully	-14695
▁agony	-14696
▁erase	-14697
▁bitchh	-14698
▁crocs	-14699
▁montreal	-14700
▁wey	-14701
▁wigg	-14702
▁continu	-14703
▁certified	-14704
nel	-14705
creen	-14706
▁activ	-14707
▁circus	-14708
▁blondes	-14709
▁attraction	-14710
isive	-14711
▁yasss	-14712
▁secs	-14713
▁literal	-14714
▁hehehehe	-14715
▁comparing	-14716
▁spectacular	-14717
▁dustin	-14718
▁harley	-14719
▁whut	-14720
▁gooooood	-14721
▁afric	-14722
▁indec	-14723
▁minnie	-14724
▁sharon	-14725
▁unread	-14726
▁hideous	-14727
▁preston	-14728
▁hairdress	-14729
▁nico	-14730
▁plis	-14731
mighty	-14732
▁traded	-14733
▁instructor	-14734
yan	-14735
addup	-14736
▁boos	-14737
▁aldean	-14738
▁kok	-14739
▁kun	-14740
▁vinc	-14741
▁buggin	-14742
▁extended	-14743
▁luhan	-14744
▁claudia	-14745
obia	-14746
angan	-14747
▁bracelets	-14748
▁hue	-14749
▁kalin	-14750
▁shenanigans	-14751
▁uo	-14752
velo	-14753
▁tsk	-14754
▁fetty	-14755
▁gospel	-14756
▁fate	-14757
▁iwas	-14758
▁fanny	-14759
▁karina	-14760
▁plee	-14761
▁weathers	-14762
▁️‍	-14763
▁affair	-14764
▁cynthia	-14765
▁weeee	-14766
▁naming	-14767
▁gameday	-14768
▁housewives	-14769
▁layin	-14770
▁appears	-14771
▁aaaah	-14772
▁errbody	-14773
▁seas	-14774
86	-14775
▁prec	-14776
▁digital	-14777
▁hahahhaha	-14778
▁leicester	-14779
▁registered	-14780
ono	-14781
▁joh	-14782
▁bria	-14783
▁karla	-14784
▁crucial	-14785
▁atmosphere	-14786
aca	-14787
▁chik	-14788
▁benjam	-14789
erie	-14790
isreal	-14791
▁fullest	-14792
▁rank	-14793
▁fraud	-14794
▁preci	-14795
▁relatable	-14796
▁hugh	-14797
gram	-14798
▁duff	-14799
▁detox	-14800
hoes	-14801
▁alittle	-14802
▁quitting	-14803
▁arthur	-14804
▁louise	-14805
▁unde	-14806
▁advise	-14807
▁”#	-14808
▁psa	-14809
▁sta	-14810
rave	-14811
▁drafts	-14812
▁description	-14813
oww	-14814
andez	-14815
▁rail	-14816
ols	-14817
▁wrk	-14818
▁diesel	-14819
▁sketchy	-14820
▁kro	-14821
conne	-14822
▁masturb	-14823
▁subbing	-14824
ouis	-14825
lat	-14826
▁ratchets	-14827
▁guaranteed	-14828
▁horrendous	-14829
▁possibility	-14830
▁ghosts	-14831
▁violence	-14832
▁calculator	-14833
▁negle	-14834
▁neh	-14835
▁idec	-14836
▁label	-14837
▁spazz	-14838
▁chores	-14839
eli	-14840
▁stating	-14841
▁ust	-14842
▁dile	-14843
▁ching	-14844
▁pirate	-14845
▁lays	-14846
▁vintage	-14847
▁ridin	-14848
▁gallon	-14849
▁jonah	-14850
▁lovatics	-14851
▁plotting	-14852
▁mmmm	-14853
▁emm	-14854
▁hence	-14855
▁stared	-14856
pan	-14857
▁maxi	-14858
▁lawyer	-14859
function	-14860
zoned	-14861
▁wimbledon	-14862
▁beautifully	-14863
▁🎲	-14864
▁arro	-14865
▁speedy	-14866
84	-14867
shh	-14868
▁joints	-14869
▁prayfor	-14870
▁chanyeol	-14871
liter	-14872
▁nowplaying	-14873
allows	-14874
istent	-14875
onsider	-14876
🇯🇵	-14877
▁dild	-14878
▁judy	-14879
ssssss	-14880
▁labyu	-14881
▁sparks	-14882
▁involve	-14883
yet	-14884
▁clients	-14885
test	-14886
▁isab	-14887
▁barrel	-14888
▁tart	-14889
▁obnoxious	-14890
uf	-14891
cold	-14892
▁sites	-14893
▁hickies	-14894
ño	-14895
nas	-14896
andre	-14897
▁robot	-14898
▁passionate	-14899
▁ld	-14900
▁pharm	-14901
▁humour	-14902
▁sooooo	-14903
▁deprived	-14904
▁bartender	-14905
yay	-14906
beth	-14907
pppp	-14908
▁yumm	-14909
▁tux	-14910
▁nada	-14911
▁sofia	-14912
▁skirts	-14913
▁hoodrat	-14914
▁adds	-14915
abella	-14916
▁malia	-14917
▁camper	-14918
▁marine	-14919
81	-14920
>'2	-14921
onk	-14922
▁planes	-14923
▁underwood	-14924
▁suggestion	-14925
▁arc	-14926
▁rams	-14927
▁gemma	-14928
▁promoting	-14929
▁🆙	-14930
▁raj	-14931
▁¿	-14932
▁mysterious	-14933
ener	-14934
▁joys	-14935
▁shack	-14936
▁kinky	-14937
▁manners	-14938
▁obvs	-14939
▁stomp	-14940
cor	-14941
▁schoo	-14942
▁bums	-14943
▁lyn	-14944
▁$300	-14945
▁lurkin	-14946
▁firstworld	-14947
▁hears	-14948
▁🌰	-14949
▁👚	-14950
▁kenz	-14951
▁searched	-14952
▁divas	-14953
▁erick	-14954
▁versace	-14955
▁detail	-14956
▁competing	-14957
▁wouldve	-14958
▁downgrade	-14959
ymous	-14960
waiting	-14961
▁bismillah	-14962
▁panthers	-14963
agers	-14964
▁snuggled	-14965
▁brunette	-14966
▁ramadhan	-14967
bul	-14968
onedirection	-14969
▁karl	-14970
▁proposed	-14971
▁skylar	-14972
▁cucumber	-14973
1<	-14974
▁🎿	-14975
illo	-14976
▁bucke	-14977
feated	-14978
▁rehab	-14979
cch	-14980
▁kami	-14981
▁angelo	-14982
aines	-14983
▁fields	-14984
yun	-14985
▁item	-14986
▁knots	-14987
▁drought	-14988
▁disp	-14989
▁debbie	-14990
▁hipster	-14991
▁jaja	-14992
▁ouija	-14993
▁grub	-14994
pat	-14995
▁sas	-14996
▁fags	-14997
▁flush	-14998
▁joked	-14999
▁former	-15000
▁nelson	-15001
apo	-15002
▁pw	-15003
▁scooby	-15004
▁livestream	-15005
▁tasha	-15006
▁overwhelming	-15007
ods	-15008
▁muted	-15009
▁kettle	-15010
▁quizz	-15011
▁strep	-15012
hen	-15013
▁reggae	-15014
▁loren	-15015
▁medal	-15016
▁pedro	-15017
burgers	-15018
▁lovemy	-15019
▁🎷	-15020
xual	-15021
▁venice	-15022
▁suprise	-15023
uten	-15024
▁stuart	-15025
▁certific	-15026
guez	-15027
▁cookin	-15028
▁dieing	-15029
kar	-15030
▁eoc	-15031
▁vicious	-15032
zels	-15033
▁vow	-15034
▁whew	-15035
▁bosses	-15036
▁wooo	-15037
matt	-15038
▁delighted	-15039
iona	-15040
▁llf	-15041
▁oral	-15042
▁abbey	-15043
eon	-15044
▁boul	-15045
▁duet	-15046
▁mph	-15047
▁tweeter	-15048
post	-15049
▁thoughtful	-15050
▁sympathy	-15051
▁lf	-15052
pered	-15053
▁stations	-15054
▁beware	-15055
▁reported	-15056
km	-15057
▁rope	-15058
ousers	-15059
▁merica	-15060
▁thirty	-15061
▁fount	-15062
▁parody	-15063
▁blisters	-15064
▁withdrawal	-15065
▁🗻	-15066
▁fow	-15067
___	-15068
▁rumor	-15069
▁associate	-15070
▁bms	-15071
▁sunsh	-15072
▁nonstop	-15073
▁denmark	-15074
raa	-15075
ollow	-15076
▁cows	-15077
▁claw	-15078
▁began	-15079
▁arrival	-15080
▁achievement	-15081
aprio	-15082
▁grinch	-15083
▁franklin	-15084
▁hayfever	-15085
150	-15086
▁dek	-15087
▁queue	-15088
▁dove	-15089
▁neat	-15090
▁imagined	-15091
▁dwts	-15092
▁stopp	-15093
▁wwa	-15094
▁thorough	-15095
▁mila	-15096
wife	-15097
▁welcomed	-15098
▁mtve	-15099
▁whaaaaat	-15100
▁lettu	-15101
▁cuttin	-15102
▁undercover	-15103
▁dna	-15104
▁tlc	-15105
▁threesome	-15106
gio	-15107
ogue	-15108
▁sacrifice	-15109
▁lysm	-15110
▁mol	-15111
▁bant	-15112
▁melody	-15113
▁zak	-15114
▁beet	-15115
▁leigh	-15116
▁insanity	-15117
▁leggo	-15118
▁tested	-15119
▁fse	-15120
▁pict	-15121
▁niqqa	-15122
▁bahahaha	-15123
▁”<	-15124
▁num	-15125
▁nicholas	-15126
▁skit	-15127
▁chics	-15128
▁🍅	-15129
▁vas	-15130
▁clans	-15131
▁slays	-15132
▁roadhouse	-15133
▁television	-15134
ques	-15135
▁sins	-15136
▁sett	-15137
▁birthdaaay	-15138
▁yb	-15139
▁marilyn	-15140
▁screenshotted	-15141
82	-15142
▁deh	-15143
boards	-15144
▁babby	-15145
▁tumbling	-15146
)"	-15147
▁ao	-15148
▁rho	-15149
▁lmmfao	-15150
▁kathy	-15151
▁payne	-15152
station	-15153
▁sole	-15154
▁clare	-15155
▁naaah	-15156
lady	-15157
▁tash	-15158
▁singers	-15159
something	-15160
ressed	-15161
talking	-15162
▁hallelujah	-15163
▁agrees	-15164
▁growling	-15165
▁magically	-15166
aba	-15167
▁naomi	-15168
▁geo	-15169
▁dolphin	-15170
▁onedirection	-15171
.<	-15172
pract	-15173
▁prev	-15174
▁chrome	-15175
▁hl	-15176
quin	-15177
▁fack	-15178
▁veron	-15179
▁soa	-15180
▁kasi	-15181
forlife	-15182
▁darkness	-15183
▁consistent	-15184
▁shu	-15185
▁dalton	-15186
▁nighty	-15187
▁edible	-15188
▁maddi	-15189
▁toooo	-15190
▁allergy	-15191
▁gilinsky	-15192
▁--->	-15193
▁maan	-15194
nings	-15195
▁aliens	-15196
▁envir	-15197
▁linger	-15198
awwww	-15199
thursday	-15200
▁royalty	-15201
▁🚂	-15202
▁jung	-15203
▁stacey	-15204
▁🐉	-15205
▁earl	-15206
▁kp	-15207
▁froze	-15208
▁vocal	-15209
▁athens	-15210
▁lettuce	-15211
▁noooooo	-15212
▁shooter	-15213
▁guards	-15214
▁undefeated	-15215
▁pais	-15216
▁razor	-15217
▁jacked	-15218
▁butthole	-15219
>;	-15220
kim	-15221
▁gne	-15222
fresh	-15223
▁opener	-15224
▁africans	-15225
▁festivities	-15226
rose	-15227
▁gaby	-15228
▁carson	-15229
▁equally	-15230
▁flooded	-15231
▁motherfucking	-15232
gold	-15233
▁-__	-15234
▁jazzy	-15235
▁twink	-15236
usa	-15237
▁🍥	-15238
▁sosa	-15239
▁septum	-15240
▁stylist	-15241
▁hamburger	-15242
▁ppls	-15243
▁twelve	-15244
▁snuggles	-15245
iche	-15246
▁thangs	-15247
▁backstage	-15248
zay	-15249
▁bacc	-15250
▁dayz	-15251
▁throb	-15252
▁filters	-15253
▁revolution	-15254
91	-15255
▁starburst	-15256
cuz	-15257
▁ery	-15258
▁mlk	-15259
▁aston	-15260
▁supports	-15261
arry	-15262
▁footy	-15263
nessy	-15264
▁betting	-15265
zzi	-15266
▁pf	-15267
orld	-15268
match	-15269
▁greasy	-15270
▁simpson	-15271
▁pizzas	-15272
▁concussion	-15273
colle	-15274
▁supre	-15275
▁thanku	-15276
▁goods	-15277
▁yayayay	-15278
!,	-15279
▁belf	-15280
▁toms	-15281
etes	-15282
▁deodor	-15283
two	-15284
▁petition	-15285
jas	-15286
clip	-15287
rer	-15288
▁raps	-15289
▁sucha	-15290
sthe	-15291
▁loling	-15292
▁evol	-15293
▁charms	-15294
gens	-15295
▁wearin	-15296
▁coaching	-15297
eu	-15298
mbf	-15299
▁corrected	-15300
▁macy	-15301
▁curtis	-15302
▁	-15303
▁kj	-15304
▁aria	-15305
▁ballet	-15306
▁howling	-15307
▁clubbing	-15308
runs	-15309
aky	-15310
▁supporter	-15311
▁unexpectedly	-15312
▁benn	-15313
▁stamps	-15314
▁benjamin	-15315
foll	-15316
▁lib	-15317
▁cubs	-15318
▁versa	-15319
▁dennis	-15320
▁tension	-15321
▁awsome	-15322
▁wizard	-15323
▁avocado	-15324
▁pend	-15325
▁mai	-15326
proud	-15327
▁gotti	-15328
▁unpl	-15329
▁liber	-15330
▁ranked	-15331
▁fictional	-15332
▁convention	-15333
▁peeping	-15334
maa	-15335
▁depp	-15336
▁hindi	-15337
▁mandy	-15338
▁🏰	-15339
▁za	-15340
▁hbu	-15341
▁kerry	-15342
▁explod	-15343
▁commentary	-15344
▁spm	-15345
bodies	-15346
▁sippin	-15347
ament	-15348
▁brushed	-15349
▁crowded	-15350
▁gwen	-15351
▁sleeee	-15352
ords	-15353
▁rik	-15354
▁wuv	-15355
facts	-15356
▁angeles	-15357
"@	-15358
▁deez	-15359
▁seph	-15360
▁trance	-15361
▁🐹	-15362
▁jlo	-15363
▁chops	-15364
▁likee	-15365
▁indecisive	-15366
▁kiki	-15367
▁hudson	-15368
▁dolla	-15369
▁margaritas	-15370
▁$7	-15371
▁mozz	-15372
▁reallly	-15373
▁lup	-15374
▁zim	-15375
▁crisis	-15376
▁polite	-15377
▁googled	-15378
▁wrink	-15379
▁palmer	-15380
▁tiara	-15381
▁lbvs	-15382
tuesday	-15383
▁cantik	-15384
▁ranting	-15385
▁sorority	-15386
▁tob	-15387
produ	-15388
▁swole	-15389
bank	-15390
▁rr	-15391
▁vaca	-15392
▁albert	-15393
▁author	-15394
▁willie	-15395
lor	-15396
yees	-15397
gotta	-15398
▁educ	-15399
▁refuses	-15400
▁]	-15401
▁eso	-15402
▁soy	-15403
▁cudi	-15404
▁males	-15405
▁marshawn	-15406
▁alger	-15407
▁cly	-15408
sat	-15409
▁snowboarding	-15410
▁$500	-15411
▁dian	-15412
▁heb	-15413
kick	-15414
▁sched	-15415
▁knackered	-15416
▁phenomenal	-15417
▁towers	-15418
▁yorkshire	-15419
▁cya	-15420
▁myth	-15421
▁unwanted	-15422
▁fone	-15423
▁fears	-15424
▁repeating	-15425
▁deodorant	-15426
▁realistic	-15427
▁sweetness	-15428
▁syg	-15429
▁bogus	-15430
▁delus	-15431
▁object	-15432
▁todayy	-15433
▁zealand	-15434
▁🚌	-15435
▁ih	-15436
▁ayyyy	-15437
remember	-15438
▁frontin	-15439
▁yards	-15440
brother	-15441
john	-15442
▁ler	-15443
▁pullin	-15444
▁broom	-15445
[...]
